<unk>	0
<s>	0
</s>	0
in	-0
at	-1
er	-2
re	-3
▁t	-4
▁*	-5
);	-6
▁{	-7
▁}	-8
st	-9
on	-10
ad	-11
ata	-12
▁=	-13
if	-14
▁/	-15
▁/*	-16
▁*/	-17
se	-18
ce	-19
or	-20
data	-21
le	-22
▁c	-23
▁p	-24
lo	-25
ar	-26
de	-27
▁b	-28
en	-29
▁th	-30
ing	-31
int	-32
▁n	-33
▁data	-34
pt	-35
oo	-36
al	-37
ed	-38
▁(	-39
▁#	-40
()	-41
as	-42
am	-43
ut	-44
▁I	-45
ood	-46
ion	-47
an	-48
good	-49
▁s	-50
▁C	-51
▁if	-52
▁w	-53
ch	-54
cept	-55
▁f	-56
et	-57
▁the	-58
ine	-59
▁good	-60
it	-61
xcept	-62
▁re	-63
ro	-64
St	-65
▁e	-66
ec	-67
Line	-68
is	-69
▁pr	-70
uf	-71
ass	-72
fer	-73
uffer	-74
ll	-75
put	-76
▁st	-77
("	-78
In	-79
");	-80
▁v	-81
ur	-82
ream	-83
▁F	-84
▁"	-85
ader	-86
▁print	-87
IT	-88
ile	-89
Re	-90
▁O	-91
();	-92
MIT	-93
▁OMIT	-94
ic	-95
AL	-96
IO	-97
ry	-98
id	-99
▁a	-100
ink	-101
log	-102
▁printLine	-103
Buffer	-104
wor	-105
oid	-106
def	-107
WE	-108
est	-109
ve	-110
ull	-111
word	-112
assword	-113
▁u	-114
char	-115
IN	-116
▁void	-117
▁in	-118
end	-119
ect	-120
and	-121
▁null	-122
▁except	-123
Stream	-124
putStream	-125
ck	-126
▁ne	-127
▁CWE	-128
es	-129
▁P	-130
EN	-131
▁0	-132
▁bad	-133
▁to	-134
endif	-135
ate	-136
mp	-137
ase	-138
iz	-139
▁o	-140
ENT	-141
▁m	-142
xception	-143
Exception	-144
Sink	-145
ock	-146
ring	-147
▁h	-148
▁is	-149
▁ch	-150
▁i	-151
un	-152
UL	-153
GO	-154
AD	-155
▁exceptIO	-156
ode	-157
ey	-158
all	-159
row	-160
▁password	-161
ver	-162
10	-163
ocket	-164
▁int	-165
▁IO	-166
rypt	-167
our	-168
ource	-169
OD	-170
ndef	-171
lose	-172
onn	-173
onnect	-174
NUL	-175
atic	-176
ifndef	-177
!=	-178
ue	-179
▁new	-180
arg	-181
ble	-182
urn	-183
InputStream	-184
LA	-185
ize	-186
ror	-187
..	-188
__	-189
GOOD	-190
BAD	-191
li	-192
▁IN	-193
sing	-194
▁OMITBAD	-195
▁OMITGOOD	-196
",	-197
LAW	-198
▁FLAW	-199
ort	-200
▁!=	-201
▁goodG	-202
▁be	-203
NULL	-204
te	-205
low	-206
▁char	-207
▁use	-208
il	-209
logg	-210
ay	-211
Le	-212
Key	-213
▁test	-214
ain	-215
Reader	-216
AR	-217
vel	-218
ct	-219
▁reader	-220
ss	-221
Level	-222
ser	-223
OT	-224
100	-225
▁T	-226
ot	-227
▁S	-228
ING	-229
2_	-230
▁L	-231
Buffered	-232
▁r	-233
▁In	-234
onnection	-235
Er	-236
Error	-237
▁static	-238
atch	-239
File	-240
IAL	-241
▁POT	-242
ENTIAL	-243
▁POTENTIAL	-244
▁catch	-245
able	-246
ARN	-247
WARN	-248
logger	-249
WARNING	-250
ID	-251
xt	-252
▁try	-253
of	-254
case	-255
cl	-256
get	-257
su	-258
om	-259
▁INC	-260
▁FI	-261
▁for	-262
▁imp	-263
String	-264
ation	-265
ent	-266
[]	-267
lass	-268
";	-269
iti	-270
clu	-271
clude	-272
▁import	-273
ig	-274
▁0;	-275
▁<	-276
alue	-277
lic	-278
KE	-279
▁NULL	-280
ace	-281
▁D	-282
IOException	-283
▁throw	-284
ST	-285
▁FIX	-286
.");	-287
▁de	-288
▁arg	-289
▁and	-290
ill	-291
▁Th	-292
include	-293
▁buffer	-294
wchar	-295
▁main	-296
▁source	-297
▁H	-298
lse	-299
▁wh	-300
va	-301
▁throws	-302
▁not	-303
▁j	-304
ash	-305
em	-306
rom	-307
ak	-308
ti	-309
▁ret	-310
▁se	-311
rit	-312
list	-313
▁else	-314
▁stream	-315
ava	-316
▁return	-317
▁java	-318
Socket	-319
▁l	-320
ith	-321
ame	-322
OC	-323
close	-324
cess	-325
▁on	-326
ary	-327
ip	-328
ub	-329
ish	-330
ublic	-331
▁size	-332
▁clo	-333
▁closing	-334
▁an	-335
Fin	-336
▁will	-337
▁public	-338
itial	-339
ign	-340
▁5	-341
▁wchar	-342
()");	-343
▁d	-344
▁with	-345
eck	-346
alling	-347
▁testcase	-348
...");	-349
ished	-350
Calling	-351
()...");	-352
Finished	-353
reak	-354
▁break	-355
▁A	-356
iv	-357
pp	-358
▁Throw	-359
▁Throwable	-360
▁code	-361
ne	-362
▁&	-363
ENTAL	-364
▁INCID	-365
▁INCIDENTAL	-366
ment	-367
▁that	-368
▁==	-369
Ret	-370
OR	-371
▁from	-372
KET	-373
OCKET	-374
oint	-375
Return	-376
ws	-377
[100	-378
▁read	-379
'\	-380
reader	-381
Pro	-382
▁File	-383
pace	-384
▁-	-385
BufferedReader	-386
Crypt	-387
▁string	-388
▁String	-389
vi	-390
rite	-391
ER	-392
32_	-393
let	-394
▁U	-395
Len	-396
listen	-397
Input	-398
FileInput	-399
▁run	-400
qu	-401
';	-402
DE	-403
ject	-404
ead	-405
▁of	-406
bject	-407
▁nam	-408
'\0	-409
'\0';	-410
32	-411
ivate	-412
lt	-413
▁Re	-414
Connection	-415
erm	-416
▁BufferedReader	-417
▁InputStream	-418
load	-419
ccess	-420
ag	-421
password	-422
ist	-423
AT	-424
];	-425
25	-426
▁value	-427
espace	-428
▁namespace	-429
▁using	-430
rue	-431
▁used	-432
Un	-433
▁co	-434
ES	-435
))	-436
flow	-437
verflow	-438
ermin	-439
ive	-440
61	-441
▁below	-442
▁Code	-443
▁as	-444
By	-445
ql	-446
▁sizeof	-447
vice	-448
Data	-449
are	-450
Con	-451
ointer	-452
-1	-453
Hash	-454
Int	-455
ifdef	-456
▁never	-457
write	-458
\\	-459
▁termin	-460
lete	-461
▁561	-462
▁Dead	-463
sult	-464
ray	-465
▁private	-466
▁1	-467
ess	-468
▁en	-469
())	-470
bad	-471
cp	-472
▁);	-473
her	-474
_0	-475
reate	-476
▁Use	-477
MA	-478
vlet	-479
do	-480
Sql	-481
▁exceptSql	-482
▁by	-483
1()	-484
dSink	-485
BufferdSink	-486
FileInputSink	-487
InputStreamSink	-488
tes	-489
ex	-490
itialize	-491
andle	-492
▁reading	-493
▁dataBuffer	-494
ra	-495
andom	-496
User	-497
▁file	-498
atement	-499
UT	-500
crypt	-501
rep	-502
test	-503
ard	-504
sp	-505
▁or	-506
per	-507
tt	-508
Value	-509
Class	-510
igned	-511
io	-512
ool	-513
VAL	-514
_1	-515
3_	-516
source	-517
fo	-518
▁readerBuffered	-519
lib	-520
▁100	-521
ttp	-522
ys	-523
▁when	-524
▁larg	-525
▁fa	-526
to	-527
2()	-528
▁connection	-529
4_	-530
ding	-531
▁tool	-532
rand	-533
.*	-534
rary	-535
12	-536
len	-537
signed	-538
▁str	-539
CWE	-540
oded	-541
ipe	-542
age	-543
SOCKET	-544
▁fi	-545
▁close	-546
std	-547
name	-548
▁delete	-549
▁comp	-550
.*;	-551
▁Read	-552
define	-553
me	-554
wo	-555
▁0,	-556
Ser	-557
▁FileInputStream	-558
▁It	-559
rect	-560
onse	-561
sponse	-562
▁bin	-563
▁compil	-564
cv	-565
MAIN	-566
▁random	-567
Handle	-568
▁W	-569
LO	-570
▁k	-571
und	-572
LE	-573
testcase	-574
add	-575
time	-576
PR	-577
▁seed	-578
uil	-579
▁tools	-580
▁mem	-581
▁it	-582
ound	-583
LU	-584
[])	-585
LUDE	-586
alys	-587
ness	-588
▁argc	-589
▁argv	-590
▁buil	-591
alysis	-592
▁srand	-593
▁binary	-594
LUDEMAIN	-595
unsigned	-596
▁testing	-597
▁analysis	-598
▁building	-599
▁testcases	-600
▁randomness	-601
▁INCLUDEMAIN	-602
quest	-603
▁0)	-604
writeLine	-605
xed	-606
IC	-607
▁B	-608
▁are	-609
1();	-610
pr	-611
sure	-612
Bytes	-613
),	-614
ally	-615
ERR	-616
ERROR	-617
▁we	-618
read	-619
new	-620
True	-621
ayload	-622
▁Initialize	-623
VALID	-624
▁INVALID	-625
ich	-626
Servlet	-627
▁socket	-628
alse	-629
▁fin	-630
socket	-631
indo	-632
5)	-633
▁this	-634
▁Close	-635
▁goodB	-636
));	-637
ction	-638
▁con	-639
▁may	-640
ap	-641
stan	-642
ly	-643
▁class	-644
AN	-645
ack	-646
▁key	-647
▁'\0';	-648
-8	-649
UTF	-650
ATIC	-651
ated	-652
coded	-653
text	-654
++	-655
▁than	-656
indows	-657
0]	-658
inked	-659
ator	-660
6_	-661
yst	-662
▁finally	-663
nt	-664
ld	-665
▁object	-666
▁fixed	-667
Prov	-668
CryptProv	-669
CO	-670
itializ	-671
Ben	-672
Benign	-673
aData	-674
▁recv	-675
▁"";	-676
IV	-677
uct	-678
2();	-679
pec	-680
ath	-681
error	-682
▁check	-683
▁sink	-684
lace	-685
od	-686
▁_	-687
List	-688
5_	-689
static	-690
Ch	-691
▁which	-692
ystem	-693
oss	-694
ossi	-695
OV	-696
▁ser	-697
(1	-698
Set	-699
▁SOCKET	-700
Source	-701
listenSocket	-702
SA	-703
inkedList	-704
set	-705
Create	-706
YP	-707
CON	-708
addr	-709
sink	-710
mall	-711
ipher	-712
[100]	-713
▁le	-714
STATIC	-715
Returns	-716
▁dest	-717
▁small	-718
▁input	-719
hKey	-720
++)	-721
SE	-722
cpy	-723
Test	-724
▁overflow	-725
stream	-726
-1]	-727
rray	-728
rev	-729
▁+	-730
Cont	-731
CONST	-732
rol	-733
▁ho	-734
==	-735
ared	-736
Result	-737
omain	-738
(!	-739
service	-740
▁Class	-741
wn	-742
ossible	-743
▁error	-744
[100];	-745
connect	-746
▁at	-747
9_	-748
og	-749
hCryptProv	-750
▁but	-751
file	-752
RYP	-753
RYPT	-754
ccept	-755
ardcoded	-756
op	-757
▁ensure	-758
▁do	-759
Overflow	-760
▁su	-761
siti	-762
sitive	-763
lean	-764
ily	-765
Pipe	-766
▁large	-767
▁service	-768
iled	-769
unction	-770
());	-771
▁own	-772
▁badsink	-773
WIN	-774
ove	-775
ServletRe	-776
ttpServletRe	-777
fore	-778
Statement	-779
ari	-780
[0]	-781
▁1;	-782
QL	-783
▁failed	-784
().	-785
▁objects	-786
orrect	-787
▁response	-788
Control	-789
SH	-790
roper	-791
GON	-792
▁ex	-793
Name	-794
up	-795
▁[]	-796
▁Possible	-797
AES	-798
▁user	-799
▁init	-800
cs	-801
Ints	-802
woInts	-803
UE	-804
SQL	-805
SQLException	-806
emp	-807
ero	-808
so	-809
bal	-810
lobal	-811
Case	-812
Access	-813
▁lib	-814
")	-815
-8");	-816
▁Ab	-817
CRYPT	-818
IP	-819
gets	-820
▁so	-821
ET	-822
au	-823
Unch	-824
ecked	-825
Unchecked	-826
Not	-827
KEY	-828
En	-829
▁before	-830
==5)	-831
▁ext	-832
bConnection	-833
Array	-834
mpt	-835
Reg	-836
▁terminator	-837
He	-838
Mod	-839
▁hardcoded	-840
▁temp	-841
void	-842
ccessf	-843
ule	-844
Module	-845
uld	-846
->	-847
stanti	-848
▁Instanti	-849
▁vari	-850
repared	-851
reparedStatement	-852
▁wcs	-853
NotF	-854
NotFound	-855
ret	-856
▁successf	-857
Object	-858
crypted	-859
▁ws	-860
▁avoid	-861
▁payload	-862
▁out	-863
size	-864
Five	-865
ory	-866
oot	-867
global	-868
False	-869
▁app	-870
pport	-871
readLine	-872
ure	-873
▁library	-874
▁one	-875
retKey	-876
WOR	-877
ave	-878
FIV	-879
FIVE	-880
array	-881
PROV	-882
AND	-883
Base	-884
Based	-885
ext	-886
System	-887
support	-888
ully	-889
▁successfully	-890
▁can	-891
itialized	-892
dex	-893
ANDLE	-894
ReturnsTrue	-895
Process	-896
ruct	-897
▁exit	-898
▁crypt	-899
Pointer	-900
▁linkedList	-901
loc	-902
cceptSocket	-903
▁was	-904
▁Crypt	-905
Out	-906
Heap	-907
move	-908
▁its	-909
hHash	-910
[5	-911
ationException	-912
sin	-913
IntLine	-914
▁printIntLine	-915
ends	-916
IPE	-917
▁cre	-918
▁array	-919
uth	-920
▁compiler	-921
sultSet	-922
▁goodsource	-923
▁username	-924
Spec	-925
AA	-926
▁recvResult	-927
One	-928
▁only	-929
(1);	-930
Cipher	-931
▁how	-932
woIntsClass	-933
ere	-934
▁eas	-935
RL	-936
▁applic	-937
▁application	-938
DEF	-939
1_	-940
Init	-941
▁wsaData	-942
▁dbConnection	-943
▁easily	-944
RE	-945
ract	-946
stract	-947
TestCase	-948
stractTestCase	-949
vers	-950
▁testcasesupport	-951
▁all	-952
gal	-953
lle	-954
▁Be	-955
From	-956
Pare	-957
args	-958
▁Ille	-959
▁args	-960
▁pack	-961
Parent	-962
▁Below	-963
▁tested	-964
▁Illegal	-965
▁extends	-966
▁package	-967
▁mainFrom	-968
▁compiling	-969
▁ClassNotFound	-970
▁IllegalAccess	-971
▁mainFromParent	-972
▁hash	-973
▁statement	-974
FIN	-975
▁while	-976
la	-977
▁errors	-978
Path	-979
▁>	-980
qui	-981
▁passwordLen	-982
cpp	-983
122_	-984
▁javax	-985
▁listen	-986
retKeySpec	-987
▁Sink	-988
▁inititialized	-989
Check	-990
!");	-991
▁terminate	-992
ast	-993
RUE	-994
Function	-995
oKey	-996
sizeof	-997
Inc	-998
▁CloseHandle	-999
▁point	-1000
▁strlen	-1001
▁Connection	-1002
Li	-1003
Lib	-1004
Library	-1005
▁'	-1006
replace	-1007
80	-1008
FINAL	-1009
▁domain	-1010
Incorrect	-1011
253_	-1012
-1);	-1013
tempt	-1014
▁LO	-1015
ong	-1016
lear	-1017
▁al	-1018
▁request	-1019
▁sec	-1020
▁LOGON	-1021
ty	-1022
▁NUL	-1023
▁tempClass	-1024
▁Sec	-1025
▁Create	-1026
*)	-1027
CP	-1028
ative	-1029
sole	-1030
ome	-1031
ensitive	-1032
SI	-1033
▁pointer	-1034
[10	-1035
Sensitive	-1036
▁delet	-1037
ang	-1038
util	-1039
▁have	-1040
AM	-1041
quire	-1042
US	-1043
Info	-1044
ogon	-1045
ogonUser	-1046
31	-1047
TE	-1048
Tra	-1049
anf	-1050
canf	-1051
versal	-1052
Traversal	-1053
252_	-1054
▁deleted	-1055
▁10	-1056
▁rep	-1057
erb	-1058
eros	-1059
erberos	-1060
',	-1061
ESS	-1062
riter	-1063
TRUE	-1064
▁larger	-1065
▁name	-1066
▁un	-1067
▁HCRYPT	-1068
Ref	-1069
Password	-1070
ree	-1071
exist	-1072
getws	-1073
▁fail	-1074
▁index	-1075
▁fill	-1076
▁6	-1077
▁case	-1078
Be	-1079
▁root	-1080
ties	-1081
8_	-1082
▁N	-1083
▁-1	-1084
▁Password	-1085
Imp	-1086
win	-1087
ting	-1088
▁get	-1089
Proper	-1090
▁true	-1091
Unable	-1092
▁HANDLE	-1093
Tx	-1094
319_	-1095
Clear	-1096
Cleartext	-1097
"";	-1098
atalog	-1099
ALSE	-1100
base	-1101
http	-1102
Pr	-1103
ecrypt	-1104
ant	-1105
▁TwoIntsClass	-1106
▁PIPE	-1107
mem	-1108
▁val	-1109
next	-1110
ern	-1111
▁com	-1112
ernal	-1113
▁Socket	-1114
pHandle	-1115
payload	-1116
[100-1]	-1117
(&	-1118
▁PR	-1119
acceptSocket	-1120
out	-1121
opy	-1122
▁g	-1123
▁tcp	-1124
▁Set	-1125
ri	-1126
WORD	-1127
INET	-1128
▁sock	-1129
▁sockaddr	-1130
foo	-1131
()).	-1132
print	-1133
▁HttpServletRe	-1134
▁2	-1135
ning	-1136
irect	-1137
▁memset	-1138
fgets	-1139
▁could	-1140
▁0);	-1141
▁M	-1142
MOD	-1143
▁non	-1144
windows	-1145
ASH	-1146
connectSocket	-1147
:\\	-1148
64_	-1149
HttpServletRe	-1150
ants	-1151
logging	-1152
ener	-1153
▁replace	-1154
als	-1155
[50	-1156
Auth	-1157
locate	-1158
wsaData	-1159
▁wsaDataInit	-1160
▁up	-1161
intOne	-1162
aram	-1163
Two	-1164
▁*)	-1165
▁console	-1166
▁The	-1167
ause	-1168
▁Al	-1169
Kerberos	-1170
ery	-1171
▁clean	-1172
Windows	-1173
▁no	-1174
ute	-1175
▁Allocate	-1176
user	-1177
▁intPointer	-1178
essage	-1179
Char	-1180
▁variants	-1181
▁&&	-1182
▁path	-1183
erive	-1184
for	-1185
Ex	-1186
printf	-1187
(),	-1188
RC	-1189
ma	-1190
Nam	-1191
agma	-1192
Named	-1193
▁comment	-1194
NamedPipe	-1195
esCipher	-1196
roperties	-1197
hing	-1198
▁created	-1199
temp	-1200
ook	-1201
servlet	-1202
pragma	-1203
ken	-1204
Context	-1205
▁CryptD	-1206
BAL	-1207
GLO	-1208
GLOBAL	-1209
▁running	-1210
eter	-1211
arameter	-1212
▁load	-1213
▁byte	-1214
pi	-1215
Instan	-1216
Instance	-1217
hModule	-1218
▁hModule	-1219
Struct	-1220
Property	-1221
pecif	-1222
▁wcslen	-1223
RSA	-1224
ded	-1225
ooki	-1226
14_	-1227
▁sw	-1228
256	-1229
ers	-1230
▁Do	-1231
▁Kerberos	-1232
114_	-1233
▁false	-1234
▁En	-1235
bound	-1236
entic	-1237
entication	-1238
To	-1239
RLConnection	-1240
▁database	-1241
▁cryptoKey	-1242
den	-1243
denti	-1244
dentials	-1245
BSink	-1246
▁here	-1247
_4	-1248
OutputStream	-1249
▁def	-1250
▁10;	-1251
net	-1252
▁struct	-1253
▁fgets	-1254
0);	-1255
▁log	-1256
ination	-1257
igest	-1258
▁variable	-1259
itch	-1260
▁switch	-1261
cip	-1262
cipal	-1263
incipal	-1264
AUL	-1265
▁>=	-1266
AULT	-1267
DEFAULT	-1268
fig	-1269
prev	-1270
▁0))	-1271
▁100-1);	-1272
ou	-1273
AC	-1274
ATE	-1275
Authentication	-1276
goodG	-1277
▁login	-1278
cat	-1279
ault	-1280
▁printW	-1281
7_	-1282
string	-1283
▁destination	-1284
▁rever	-1285
▁space	-1286
ph	-1287
ogra	-1288
phic	-1289
ographic	-1290
▁attempt	-1291
Byte	-1292
ORT	-1293
TCP	-1294
PORT	-1295
▁memory	-1296
▁default	-1297
▁resultSet	-1298
passwordLen	-1299
exists	-1300
▁chang	-1301
▁write	-1302
▁printWLine	-1303
roy	-1304
estroy	-1305
▁CryptDestroy	-1306
lient	-1307
▁fla	-1308
ADD	-1309
lease	-1310
AB	-1311
▁over	-1312
▁listener	-1313
▁passwordBuffer	-1314
▁Hash	-1315
▁Ensure	-1316
readerBuffered	-1317
▁any	-1318
▁streamFileInput	-1319
70	-1320
YTE	-1321
▁FILE	-1322
▁hHash	-1323
▁E	-1324
nsitive	-1325
34	-1326
▁std	-1327
39	-1328
ALG	-1329
▁CALG	-1330
AME	-1331
ould	-1332
(100	-1333
rst	-1334
lative	-1335
ond	-1336
txt	-1337
wh	-1338
▁(0);	-1339
▁flaw	-1340
▁This	-1341
▁Hard	-1342
Good	-1343
staticFive	-1344
▁into	-1345
▁badsource	-1346
256,	-1347
_256,	-1348
IVATE	-1349
tain	-1350
▁bytes	-1351
STR	-1352
STRING	-1353
ector	-1354
▁encrypted	-1355
▁hKey	-1356
▁badSource	-1357
toString	-1358
▁initializ	-1359
▁access	-1360
loads	-1361
isFile	-1362
uploads	-1363
▁catalog	-1364
▁set	-1365
▁terminated	-1366
Output	-1367
CESS	-1368
BConnection	-1369
((	-1370
▁least	-1371
▁SRC	-1372
1234	-1373
Next	-1374
Prev	-1375
tr	-1376
▁memcpy	-1377
!=5)	-1378
private	-1379
getBytes	-1380
ron	-1381
Gener	-1382
viron	-1383
vironment	-1384
ANC	-1385
(2	-1386
ABC	-1387
verSocket	-1388
-8"	-1389
Decrypt	-1390
15_	-1391
▁ot	-1392
▁other	-1393
struct	-1394
▁able	-1395
Digest	-1396
essageDigest	-1397
RegCreate	-1398
+1	-1399
Ext	-1400
figur	-1401
Setting	-1402
Configur	-1403
External	-1404
Configuration	-1405
▁some	-1406
istry	-1407
Registry	-1408
▁keyName	-1409
ost	-1410
▁logg	-1411
▁logged	-1412
▁initialize	-1413
ByteArray	-1414
(2,	-1415
Ptr	-1416
▁1)	-1417
th	-1418
pFile	-1419
▁aesCipher	-1420
LOSE	-1421
AAAA	-1422
▁Cipher	-1423
[50-1]	-1424
▁stdin	-1425
_6	-1426
Vector	-1427
work	-1428
▁net	-1429
▁network	-1430
▁Copy	-1431
805_	-1432
▁dataBytes	-1433
▁linkedListNext	-1434
▁linkedListPrev	-1435
getProperty	-1436
lim	-1437
▁CLOSE	-1438
pen	-1439
Mut	-1440
Mutex	-1441
dest	-1442
▁been	-1443
PUT	-1444
intTwo	-1445
▁list	-1446
▁fgetws	-1447
23_	-1448
▁5)	-1449
NET	-1450
IDER	-1451
WORK	-1452
LOGON	-1453
NETWORK	-1454
PROVIDER	-1455
LogonUser	-1456
▁prev	-1457
USKey	-1458
FI	-1459
AY	-1460
▁leak	-1461
Sec	-1462
▁include	-1463
▁tempClassObject	-1464
DEFG	-1465
ABCDEFG	-1466
OF	-1467
▁dataLen	-1468
hPipe	-1469
FALSE	-1470
laint	-1471
laintext	-1472
ReturnsFalse	-1473
scanf	-1474
ileg	-1475
▁see	-1476
ivileg	-1477
▁5;	-1478
Ab	-1479
▁HKEY	-1480
▁closed	-1481
way	-1482
▁-1;	-1483
36_	-1484
hash	-1485
sol	-1486
Absol	-1487
▁100,	-1488
Absolute	-1489
ger	-1490
UF	-1491
▁SecretKeySpec	-1492
▁secretKeySpec	-1493
90	-1494
▁function	-1495
▁closesocket	-1496
▁;	-1497
Domain	-1498
▁long	-1499
Relative	-1500
▁correct	-1501
art	-1502
BSource	-1503
erson	-1504
(1)	-1505
[10+1	-1506
▁smaller	-1507
ber	-1508
Station	-1509
ADDR	-1510
gh	-1511
Improper	-1512
yp	-1513
sa	-1514
▁specif	-1515
ore	-1516
fput	-1517
▁connect	-1518
Generator	-1519
▁To	-1520
▁Pointer	-1521
[0]);	-1522
ted	-1523
▁If	-1524
Of	-1525
Client	-1526
▁Ser	-1527
▁LogonUser	-1528
▁By	-1529
▁690	-1530
▁Value	-1531
pointer	-1532
▁Return	-1533
▁initializing	-1534
ince	-1535
▁since	-1536
um	-1537
▁Con	-1538
▁outbound	-1539
▁ServerSocket	-1540
Release	-1541
dataLen	-1542
HASH	-1543
Des	-1544
INPUT	-1545
umber	-1546
here	-1547
*)&	-1548
Qu	-1549
IST	-1550
ISTEN	-1551
▁listenSocket	-1552
iol	-1553
▁Secure	-1554
ivilege	-1555
fe	-1556
amily	-1557
▁handle	-1558
Map	-1559
getInstance	-1560
Static	-1561
leanup	-1562
home	-1563
getInputStream	-1564
SHA	-1565
CH	-1566
WA	-1567
WAIT	-1568
wins	-1569
ues	-1570
▁values	-1571
▁Windows	-1572
[10];	-1573
request	-1574
Desk	-1575
▁WSA	-1576
MODE	-1577
');	-1578
Hard	-1579
Coded	-1580
▁100;	-1581
▁head	-1582
▁Call	-1583
27	-1584
▁1,	-1585
INST	-1586
▁BUF	-1587
INSTANC	-1588
ity	-1589
▁reversing	-1590
root	-1591
(5	-1592
eriveKey	-1593
ough	-1594
chr	-1595
ookie	-1596
ersonate	-1597
▁(!	-1598
VALUE	-1599
us	-1600
ALL	-1601
▁AF	-1602
▁URLConnection	-1603
safe	-1604
▁enough	-1605
con	-1606
Unsafe	-1607
470	-1608
470_	-1609
recv	-1610
Refle	-1611
Reflection	-1612
recvResult	-1613
▁cause	-1614
url	-1615
2_32	-1616
Long	-1617
▁acceptSocket	-1618
alloc	-1619
▁pipe	-1620
▁MS	-1621
▁attempts	-1622
▁IP	-1623
Start	-1624
▁nothing	-1625
▁writer	-1626
Random	-1627
▁Object	-1628
form	-1629
ttempt	-1630
hashData	-1631
▁KerberosKey	-1632
Cleanup	-1633
cryptoKey	-1634
_2	-1635
tcp	-1636
28	-1637
intPointer	-1638
Ac	-1639
ENH	-1640
▁PROV	-1641
Acquire	-1642
CryptAcquire	-1643
sql	-1644
▁call	-1645
▁first	-1646
_7	-1647
family	-1648
▁payloadBytes	-1649
▁boo	-1650
▁boolean	-1651
staticTrue	-1652
▁allow	-1653
fgetws	-1654
".	-1655
▁neg	-1656
▁valid	-1657
▁changing	-1658
▁negative	-1659
▁pHandle	-1660
KeyEx	-1661
HANDLE	-1662
auth	-1663
ITE	-1664
54	-1665
ized	-1666
▁flow	-1667
▁ab	-1668
init	-1669
▁inser	-1670
dout	-1671
Hex	-1672
line	-1673
OCK	-1674
▁uses	-1675
▁LISTEN	-1676
ATA	-1677
SAD	-1678
ons	-1679
▁ht	-1680
MAKE	-1681
REAM	-1682
[50]	-1683
port	-1684
▁SOCK	-1685
▁WSAD	-1686
STREAM	-1687
▁htons	-1688
Startup	-1689
MAKEWORD	-1690
▁WSADATA	-1691
wsaDataInit	-1692
▁WSACleanup	-1693
Viol	-1694
Violation	-1695
ied	-1696
272_	-1697
NAME	-1698
▁fre	-1699
Least	-1700
Privilege	-1701
lish	-1702
▁Pr	-1703
▁Print	-1704
_3	-1705
▁specified	-1706
▁ResultSet	-1707
CU	-1708
Use	-1709
sec	-1710
val	-1711
valid	-1712
BeDecrypt	-1713
BeDecrypted	-1714
▁sent	-1715
ended	-1716
▁Free	-1717
▁freed	-1718
▁intended	-1719
▁6:	-1720
open	-1721
▁there	-1722
▁wmem	-1723
▁wmemset	-1724
loop	-1725
ab	-1726
HER	-1727
mpty	-1728
true	-1729
▁empty	-1730
▁crypto	-1731
streamFileInput	-1732
Writer	-1733
19	-1734
amp	-1735
ample	-1736
▁Attempt	-1737
▁Key	-1738
stab	-1739
stablish	-1740
else	-1741
▁ERROR	-1742
quired	-1743
▁pFile	-1744
top	-1745
ow	-1746
▁parameter	-1747
ide	-1748
PIPE	-1749
tack	-1750
tacker	-1751
▁attacker	-1752
▁listening	-1753
READ	-1754
toChar	-1755
toCharArray	-1756
ter	-1757
▁direct	-1758
▁ST	-1759
▁EOF	-1760
▁above	-1761
gth	-1762
vapi	-1763
length	-1764
▁fails	-1765
▁statements	-1766
▁hold	-1767
os	-1768
").	-1769
Low	-1770
getD	-1771
Lower	-1772
dexOf	-1773
indexOf	-1774
toLower	-1775
globalFive	-1776
toLowerCase	-1777
▁"/	-1778
woIntsStruct	-1779
ACK	-1780
LOG	-1781
BACK	-1782
BACKLOG	-1783
Bad	-1784
Impersonate	-1785
▁FALSE	-1786
ULE	-1787
oad	-1788
USER	-1789
▁his	-1790
▁HMOD	-1791
▁Load	-1792
▁does	-1793
badSink	-1794
▁loaded	-1795
▁HMODULE	-1796
▁FreeLibrary	-1797
▁LoadLibrary	-1798
▁AES	-1799
encrypted	-1800
sensitive	-1801
Query	-1802
GE	-1803
MES	-1804
▁SH	-1805
SAGE	-1806
▁hPipe	-1807
MESSAGE	-1808
▁credentials	-1809
ED	-1810
sn	-1811
)]	-1812
Parameter	-1813
▁Abort	-1814
▁De	-1815
)*	-1816
▁qu	-1817
▁getting	-1818
CreateProcess	-1819
getDBConnection	-1820
SU	-1821
BYTE	-1822
anag	-1823
▁less	-1824
ecause	-1825
CryptD	-1826
HashData	-1827
CreateHash	-1828
CryptHashData	-1829
CryptDeriveKey	-1830
CryptCreateHash	-1831
lock	-1832
ABCDEFGH	-1833
INT	-1834
host	-1835
99	-1836
verM	-1837
anager	-1838
riverM	-1839
riverManager	-1840
▁Delete	-1841
▁HASH	-1842
▁establish	-1843
ecut	-1844
store	-1845
▁Restore	-1846
▁twoIntsStruct	-1847
▁leave	-1848
redentials	-1849
284_	-1850
fread	-1851
▁calls	-1852
ncpy	-1853
2),	-1854
WSA	-1855
_10	-1856
▁NO	-1857
(2,2),	-1858
WSAStartup	-1859
Or	-1860
ions	-1861
OrFalse	-1862
Encrypt	-1863
Mem	-1864
which	-1865
▁dataGood	-1866
Memory	-1867
advapi	-1868
▁badSink	-1869
ul	-1870
ARR	-1871
izer	-1872
ARRAY	-1873
kenizer	-1874
TwoIntsClass	-1875
/";	-1876
iss	-1877
▁bod	-1878
▁properties	-1879
].	-1880
dataPtr	-1881
ecutable	-1882
SUC	-1883
SUCCESS	-1884
formation	-1885
AF	-1886
OTO	-1887
PROTO	-1888
▁IPPROTO	-1889
▁connectSocket	-1890
NPR	-1891
INTF	-1892
NPRINTF	-1893
urity	-1894
▁lim	-1895
▁limit	-1896
▁100*	-1897
▁G	-1898
▁DB	-1899
▁pro	-1900
▁KEY	-1901
▁Reg	-1902
caten	-1903
hUser	-1904
▁stdout	-1905
catenated	-1906
▁pipeName	-1907
▁concatenated	-1908
ByteArrayOutput	-1909
tempFile	-1910
Principal	-1911
▁DWORD	-1912
▁HCRYPTKEY	-1913
▁HCRYPTHASH	-1914
▁HCRYPTPROV	-1915
▁hCryptProv	-1916
▁CryptRelease	-1917
▁CryptDestroyKey	-1918
[10+1]	-1919
259	-1920
3954	-1921
crypto	-1922
▁without	-1923
▁Decrypt	-1924
806_	-1925
24	-1926
(0	-1927
Could	-1928
▁Derive	-1929
bo	-1930
▁allowing	-1931
arri	-1932
▁carri	-1933
▁carriage	-1934
▁inserted	-1935
\\";	-1936
delete	-1937
_5	-1938
▁System	-1939
ppend	-1940
Copy	-1941
PRIVATE	-1942
▁pointed	-1943
teger	-1944
▁external	-1945
snprintf	-1946
ww	-1947
]);	-1948
buffer	-1949
▁Array	-1950
org	-1951
example	-1952
▁wcscpy	-1953
▁environment	-1954
HCRYPT	-1955
ermiss	-1956
ermissions	-1957
▁PRIVATE	-1958
193_	-1959
▁length	-1960
▁dataBad	-1961
▁sh	-1962
Cryptographic	-1963
eded	-1964
setC	-1965
andbo	-1966
▁port	-1967
author	-1968
Desktop	-1969
▁sandbo	-1970
existent	-1971
▁portion	-1972
▁unvalid	-1973
▁unauthor	-1974
setCatalog	-1975
▁plaintext	-1976
▁sandboxed	-1977
▁validation	-1978
dbConnection	-1979
▁nonexistent	-1980
▁unvalidated	-1981
▁unauthorized	-1982
259_	-1983
▁block	-1984
ined	-1985
ake	-1986
▁make	-1987
▁inputBuffer	-1988
AP	-1989
▁next	-1990
▁memmove	-1991
▁way	-1992
3;	-1993
Read	-1994
▁has	-1995
HashMap	-1996
LinkedList	-1997
urlConnection	-1998
2.	-1999
▁readLine	-2000
ncat	-2001
▁sinks	-2002
Close	-2003
▁permissions	-2004
LogonUserA	-2005
▁const	-2006
▁needed	-2007
by	-2008
dap	-2009
▁STATIC	-2010
▁directly	-2011
Se	-2012
TEST	-2013
fter	-2014
TestKey	-2015
▁CreateNamedPipe	-2016
▁BYTE	-2017
code	-2018
payloadBytes	-2019
-259	-2020
Final	-2021
▁strcpy	-2022
ookies	-2023
doFinal	-2024
Open	-2025
remove	-2026
RegCreateUSKey	-2027
2;	-2028
6)	-2029
FIR	-2030
FLA	-2031
HAT	-2032
FLAG	-2033
HERE	-2034
what	-2035
FIRST	-2036
where	-2037
INSTANCE	-2038
"))	-2039
ClassObject	-2040
▁(100	-2041
▁Coded	-2042
▁dataGoodBuffer	-2043
▁NOT	-2044
URLConnection	-2045
Integer	-2046
putObject	-2047
▁sensitive	-2048
sys	-2049
inet	-2050
class	-2051
▁should	-2052
Th	-2053
▁full	-2054
▁named	-2055
forName	-2056
newInstance	-2057
▁Instantiate	-2058
tempClassObject	-2059
FER	-2060
ACCESS	-2061
termin	-2062
ADDRESS	-2063
RR	-2064
CURR	-2065
(5==5)	-2066
CURRENT	-2067
▁checking	-2068
globalTrue	-2069
ok	-2070
str	-2071
▁SNPRINTF	-2072
DAP	-2073
▁being	-2074
▁prevent	-2075
ype	-2076
Free	-2077
ange	-2078
eroMemory	-2079
▁dataCopy	-2080
41	-2081
ndefined	-2082
▁messageDigest	-2083
After	-2084
▁very	-2085
▁remove	-2086
ecute	-2087
repare	-2088
dataRef	-2089
▁Append	-2090
▁dataRef	-2091
[50];	-2092
credentials	-2093
lement	-2094
▁BUFSI	-2095
dll	-2096
ithout	-2097
ir	-2098
As	-2099
LogonUserW	-2100
WR	-2101
fwrite	-2102
console	-2103
reat	-2104
wscanf	-2105
▁fclose	-2106
▁MessageDigest	-2107
unc	-2108
ify	-2109
irectory	-2110
BeEn	-2111
BeEncrypted	-2112
NE	-2113
\0	-2114
\0",	-2115
memcpy	-2116
reater	-2117
▁bound	-2118
memmove	-2119
▁greater	-2120
▁payloadLen	-2121
FileNotFound	-2122
ep	-2123
ition	-2124
▁dataBadBuffer	-2125
ial	-2126
ence	-2127
▁7	-2128
oto	-2129
▁goto	-2130
▁'\	-2131
▁my	-2132
▁LDAP	-2133
toBeDecrypted	-2134
LongLine	-2135
00	-2136
MP	-2137
ANY	-2138
WRITE	-2139
fscanf	-2140
▁INADDR	-2141
▁accept	-2142
RegOpen	-2143
▁R	-2144
SS	-2145
OL	-2146
2_32")	-2147
winsock	-2148
416_	-2149
rv	-2150
use	-2151
pecify	-2152
winsrv	-2153
▁Specify	-2154
ways	-2155
▁always	-2156
▁)	-2157
▁proper	-2158
LI	-2159
ses	-2160
LIMIT	-2161
//	-2162
://	-2163
1234!	-2164
)-	-2165
_01_	-2166
_02_	-2167
_03_	-2168
_04_	-2169
_05_	-2170
_06_	-2171
_07_	-2172
_08_	-2173
_09_	-2174
_10_	-2175
_11_	-2176
_12_	-2177
_13_	-2178
_14_	-2179
_15_	-2180
_16_	-2181
_17_	-2182
ENAME	-2183
der	-2184
input	-2185
▁KeyGenerator	-2186
_18_	-2187
▁second	-2188
▁tempFile	-2189
▁keyGenerator	-2190
!=5	-2191
==5	-2192
CHAR	-2193
Directory	-2194
96	-2195
terminate	-2196
FILE	-2197
range	-2198
bounds	-2199
▁required	-2200
cc	-2201
(100*	-2202
RLF	-2203
SET	-2204
inate	-2205
▁CRLF	-2206
▁Elim	-2207
▁strchr	-2208
▁wcschr	-2209
▁Eliminate	-2210
▁We	-2211
For	-2212
dition	-2213
▁Aquire	-2214
▁Context	-2215
▁hashData	-2216
▁Properties	-2217
)];	-2218
OCA	-2219
ALLOCA	-2220
1(	-2221
Union	-2222
▁myUnion	-2223
Stack	-2224
llo	-2225
union	-2226
toHex	-2227
3);	-2228
▁outputObject	-2229
(6)	-2230
56	-2231
ht	-2232
32\\	-2233
ight	-2234
▁might	-2235
Testing	-2236
ureRandom	-2237
▁goodsink	-2238
▁principal	-2239
.0	-2240
HAR	-2241
▁CHAR	-2242
strlen	-2243
▁50	-2244
sscanf	-2245
▁50-1);	-2246
ritable	-2247
▁open	-2248
Information	-2249
ies	-2250
Stor	-2251
tainer	-2252
Storage	-2253
)))	-2254
ENER	-2255
ating	-2256
ENERIC	-2257
without	-2258
▁pathname	-2259
cryptoKeyLen	-2260
15	-2261
secure	-2262
32.	-2263
bly	-2264
ossibly	-2265
▁union	-2266
▁Remove	-2267
Fi	-2268
Su	-2269
2(	-2270
spect	-2271
▁cookie	-2272
▁property	-2273
▁decrypted	-2274
bin	-2275
UN	-2276
omet	-2277
▁somet	-2278
▁BUFFER	-2279
▁something	-2280
First	-2281
▁Don	-2282
-8"));	-2283
kerberos	-2284
zero	-2285
▁occ	-2286
▁cryptographic	-2287
arch	-2288
Plaintext	-2289
▁classTwo	-2290
▁anyway	-2291
▁,	-2292
▁4	-2293
REG	-2294
▁lo	-2295
▁cer	-2296
oking	-2297
▁most	-2298
▁certain	-2299
▁looking	-2300
▁checkers	-2301
▁implement	-2302
▁sourceLen	-2303
▁implementation	-2304
};	-2305
▁{0	-2306
▁URL	-2307
lines	-2308
orary	-2309
▁newlines	-2310
▁context	-2311
getConnection	-2312
▁DriverManager	-2313
▁changes	-2314
▁reverses	-2315
properties	-2316
7015	-2317
▁TCP	-2318
2_32.	-2319
▁link	-2320
direct	-2321
▁27015	-2322
▁final	-2323
▁linking	-2324
resultSet	-2325
-8"),	-2326
ready	-2327
▁already	-2328
ENV	-2329
Size	-2330
lect	-2331
select	-2332
execute	-2333
prepare	-2334
executeQuery	-2335
prepareStatement	-2336
Condition	-2337
exit	-2338
connection	-2339
com	-2340
ines	-2341
staticFalse	-2342
▁bey	-2343
▁beyond	-2344
Hello	-2345
1;	-2346
-1),	-2347
eger	-2348
putc	-2349
puts	-2350
▁{0};	-2351
rename	-2352
▁integer	-2353
RegCreateKeyEx	-2354
SHRegCreateUSKey	-2355
▁same	-2356
FileOutput	-2357
▁hashing	-2358
ariable	-2359
lf	-2360
▁0'	-2361
Text	-2362
issing	-2363
121_	-2364
AYLO	-2365
pipe	-2366
pper	-2367
AYLOAD	-2368
▁upper	-2369
▁process	-2370
▁free	-2371
ait	-2372
bind	-2373
▁fopen	-2374
security	-2375
vert	-2376
▁GENERIC	-2377
▁exception	-2378
▁<<	-2379
byte	-2380
Self	-2381
▁bodies	-2382
linkedList	-2383
ress	-2384
▁dataVector	-2385
123456	-2386
ka	-2387
_61	-2388
WHAT	-2389
head	-2390
ured	-2391
▁add	-2392
▁aka	-2393
WHERE	-2394
▁points	-2395
▁address	-2396
▁occured	-2397
dataBytes	-2398
▁LoadLibraryA	-2399
▁LoadLibraryW	-2400
▁encryptedLen	-2401
▁toBeEncrypted	-2402
bas	-2403
basic	-2404
▁order	-2405
[10+1];	-2406
UP	-2407
TYP	-2408
TYPE	-2409
1234!";	-2410
Connect	-2411
LIMITED	-2412
▁report	-2413
READMODE	-2414
INSTANCES	-2415
UNLIMITED	-2416
Second	-2417
fputc	-2418
fputs	-2419
fprintf	-2420
putchar	-2421
Properties	-2422
NamedPipeClient	-2423
CryptDecrypt	-2424
Message	-2425
▁dBConnection	-2426
side	-2427
Windo	-2428
AsUser	-2429
Window	-2430
WindowStation	-2431
ach	-2432
▁sure	-2433
▁linked	-2434
dent	-2435
▁system	-2436
▁2;	-2437
▁Un	-2438
aw	-2439
oom	-2440
▁raw	-2441
▁room	-2442
IntClass	-2443
Wh	-2444
)),	-2445
err	-2446
123_	-2447
What	-2448
Where	-2449
Write	-2450
-8")),	-2451
DECRYPT	-2452
aesCipher	-2453
▁temporary	-2454
ABCDEFGHABCDEFGH	-2455
(0,	-2456
oft	-2457
ros	-2458
ates	-2459
icros	-2460
icrosoft	-2461
▁SecureRandom	-2462
Win	-2463
▁NOTE	-2464
Variable	-2465
)(100	-2466
▁these	-2467
GSource	-2468
▁si	-2469
ha	-2470
Beha	-2471
vior	-2472
Behavior	-2473
75	-2474
758_	-2475
(-1);	-2476
(-1);}	-2477
Undefined	-2478
▁initialized	-2479
CreateNamedPipe	-2480
▁Ass	-2481
▁Assign	-2482
▁because	-2483
CryptEncrypt	-2484
▁TRUE	-2485
inputBuffer	-2486
▁id	-2487
▁badStruct	-2488
.\\	-2489
[0].	-2490
▁dataHashMap	-2491
▁dataLinkedList	-2492
Global	-2493
Executable	-2494
environment	-2495
▁Ch	-2496
▁Check	-2497
▁printLong	-2498
getC	-2499
▁query	-2500
▁token	-2501
Sources	-2502
getQuery	-2503
Tokenizer	-2504
getCookies	-2505
getParameter	-2506
getQueryString	-2507
*)(	-2508
▁opened	-2509
ee	-2510
buf	-2511
▁inet	-2512
▁append	-2513
▁getConnection	-2514
▁executable	-2515
fin	-2516
final	-2517
▁ident	-2518
▁reads	-2519
▁identify	-2520
leared	-2521
Unsigned	-2522
(1,	-2523
Oper	-2524
malloc	-2525
table	-2526
HK	-2527
wc	-2528
680	-2529
INF	-2530
ION	-2531
SRC	-2532
680_	-2533
ainer	-2534
▁Wait	-2535
▁hUser	-2536
▁hMutex	-2537
CloseKey	-2538
hProcess	-2539
Connected	-2540
Container	-2541
WinStation	-2542
▁ByteArray	-2543
▁fConnected	-2544
▁RegCloseKey	-2545
▁y	-2546
uncPtr	-2547
▁result	-2548
4);	-2549
▁you	-2550
(3954	-2551
▁3954	-2552
accept	-2553
(39543);	-2554
listener	-2555
▁39544);	-2556
FileInputStream	-2557
1:	-2558
NG	-2559
-32	-2560
▁WE	-2561
-321:	-2562
▁WEOF	-2563
▁Cryptographic	-2564
321_	-2565
▁Reading	-2566
▁toBeDecrypted	-2567
▁zero	-2568
GSink	-2569
Public	-2570
129_	-2571
▁thing	-2572
PublicStatic	-2573
22	-2574
nd	-2575
\\\\	-2576
goodB	-2577
writer	-2578
\\\\.\\	-2579
gor	-2580
ithm	-2581
▁algor	-2582
Missing	-2583
▁number	-2584
supported	-2585
▁algorithm	-2586
▁writerBuffered	-2587
▁(5	-2588
privateFive	-2589
Chars	-2590
256_	-2591
(*	-2592
pc	-2593
www	-2594
Number	-2595
OOL	-2596
▁BOOL	-2597
ance	-2598
ately	-2599
false	-2600
▁loop	-2601
DES	-2602
▁gener	-2603
key	-2604
hMutex	-2605
wcs	-2606
ML	-2607
TML	-2608
")).	-2609
▁web	-2610
/")).	-2611
▁HTML	-2612
▁body	-2613
▁writ	-2614
▁server	-2615
openConnection	-2616
▁urlConnection	-2617
▁CRYPT	-2618
Fa	-2619
decl	-2620
declare	-2621
AAAAAAAA	-2622
ust	-2623
wcslen	-2624
).	-2625
0;	-2626
ose	-2627
ms	-2628
we	-2629
Ldap	-2630
▁ldap	-2631
alloca	-2632
verted	-2633
Success	-2634
pMessage	-2635
principal	-2636
vertedText	-2637
▁requiredSize	-2638
LdapConnection	-2639
▁convertedText	-2640
trol	-2641
BytesLine	-2642
HCRYPTHASH	-2643
▁printBytesLine	-2644
USE	-2645
▁NMP	-2646
▁NMPWAIT	-2647
NEW	-2648
mat	-2649
325_	-2650
Step	-2651
Required	-2652
▁secureRandom	-2653
(0)	-2654
▁cout	-2655
iven	-2656
▁Hex	-2657
▁hex	-2658
[(100	-2659
▁Wipe	-2660
▁back	-2661
Format	-2662
decode	-2663
▁given	-2664
codeHex	-2665
▁decodeHex	-2666
istd	-2667
unistd	-2668
_22_	-2669
▁host	-2670
▁per	-2671
MOV	-2672
env	-2673
MOVE	-2674
REMOVE	-2675
▁possibly	-2676
RegOpenUSKey	-2677
liance	-2678
fort	-2679
ools	-2680
▁fut	-2681
fortun	-2682
▁Tools	-2683
▁those	-2684
▁future	-2685
▁Unfortun	-2686
▁Unfortunately	-2687
[2	-2688
▁ass	-2689
▁Hardcoded	-2690
▁newDirectory	-2691
▁type	-2692
wprintf	-2693
ToRead	-2694
version	-2695
Inside	-2696
pa	-2697
pes	-2698
arpa	-2699
types	-2700
netinet	-2701
▁");	-2702
HKCU	-2703
spec	-2704
▁contain	-2705
_8	-2706
ORM	-2707
AAAAAAAAAA	-2708
▁Container	-2709
▁7:	-2710
▁writing	-2711
▁1024	-2712
▁contains	-2713
-5	-2714
-512	-2715
32")	-2716
▁privateFive	-2717
rd	-2718
▁variables	-2719
kerberosKey	-2720
passwordAuth	-2721
driverManager	-2722
supportedOper	-2723
BufferedWriter	-2724
▁};	-2725
filename	-2726
stdin	-2727
NO	-2728
Unc	-2729
▁put	-2730
oi	-2731
226_	-2732
Before	-2733
roperly	-2734
Uncleared	-2735
▁:	-2736
etL	-2737
▁atoi	-2738
etLast	-2739
▁Convert	-2740
etLastError	-2741
SecretKeySpec	-2742
Security	-2743
▁attempting	-2744
Type	-2745
▁Using	-2746
pcImpersonate	-2747
▁tr	-2748
▁Properly	-2749
32"	-2750
Cre	-2751
▁decl	-2752
▁declared	-2753
▁3	-2754
▁Good	-2755
OP	-2756
ANCED	-2757
ENHANCED	-2758
▁cryptoKeyBuffer	-2759
_22	-2760
ality	-2761
)'	-2762
myp	-2763
pus	-2764
▁*;	-2765
back	-2766
push	-2767
▁HUS	-2768
OCESS	-2769
REGSET	-2770
mypipe	-2771
▁SHReg	-2772
▁HUSKEY	-2773
▁SHREGSET	-2774
CloseUSKey	-2775
▁RegCreate	-2776
▁CreateMutex	-2777
▁intUnsigned	-2778
serviceClient	-2779
▁SHRegCloseUSKey	-2780
OS	-2781
)-1	-2782
_33	-2783
_33;	-2784
(5)	-2785
▁&)	-2786
tion	-2787
▁causes	-2788
ASS	-2789
▁PASS	-2790
▁PASSWORD	-2791
gr	-2792
gram	-2793
▁PUT	-2794
▁control	-2795
▁intArray	-2796
▁information	-2797
▁initialization	-2798
ol	-2799
▁possible	-2800
lv	-2801
lvl	-2802
10))	-2803
▁Out	-2804
IPHER	-2805
▁(10))	-2806
Private	-2807
intArray	-2808
relative	-2809
▁validate	-2810
▁secretKey	-2811
relativePath	-2812
▁OutputStream	-2813
▁BufferedWriter	-2814
37	-2815
sh	-2816
comm	-2817
ypic	-2818
47	-2819
lw	-2820
api	-2821
244_	-2822
free	-2823
shlw	-2824
domain	-2825
▁(-1),	-2826
Inspect	-2827
shlwapi	-2828
Inspection	-2829
CreateMutex	-2830
digest	-2831
▁des	-2832
963	-2833
964	-2834
_04	-2835
_05	-2836
_06	-2837
_07	-2838
_08	-2839
_09	-2840
_14	-2841
_15	-2842
ived	-2843
123456"	-2844
_16	-2845
_17	-2846
OneIntClass	-2847
▁Did	-2848
Token	-2849
eryst	-2850
LSocket	-2851
database	-2852
▁cookies	-2853
▁queryst	-2854
▁tokenizer	-2855
Environment	-2856
▁querystring	-2857
▁getParameter	-2858
PropertiesFile	-2859
▁cookieSources	-2860
▁StringTokenizer	-2861
../	-2862
eve	-2863
("../	-2864
rieve	-2865
common	-2866
config	-2867
▁retrieve	-2868
tting	-2869
▁encrypt	-2870
▁setting	-2871
privateTrue	-2872
EC	-2873
App	-2874
ati	-2875
lati	-2876
vely	-2877
▁20;	-2878
GoodApp	-2879
Program	-2880
▁relati	-2881
▁PAYLOAD	-2882
▁typedef	-2883
▁relatively	-2884
Po	-2885
398_	-2886
Code	-2887
Poor	-2888
▁inc	-2889
ayout	-2890
Quality	-2891
>();	-2892
_81_	-2893
▁base	-2894
Serial	-2895
▁Vector	-2896
▁serial	-2897
▁HashMap	-2898
Serialized	-2899
▁LinkedList	-2900
▁baseObject	-2901
(5!=5)	-2902
globalFalse	-2903
alt	-2904
▁7;	-2905
▁two	-2906
▁intVariable	-2907
▁V	-2908
_45_	-2909
▁lines	-2910
▁thread	-2911
▁conversion	-2912
BData	-2913
')	-2914
\"	-2915
lag	-2916
Temp	-2917
▁flag	-2918
nextInt	-2919
ENCRYPT	-2920
number	-2921
USERNAME	-2922
Fact	-2923
Factory	-2924
ild	-2925
ual	-2926
uble	-2927
00,	-2928
CTE	-2929
DUP	-2930
LEX	-2931
CTED	-2932
CONNE	-2933
DUPLEX	-2934
CharInt	-2935
▁Connect	-2936
CONNECTED	-2937
EW	-2938
▁ac	-2939
▁NEW	-2940
▁Try	-2941
KEYSET	-2942
▁acqui	-2943
▁Hashed	-2944
NEWKEYSET	-2945
▁creating	-2946
▁acquiring	-2947
▁CryptDeriveKey	-2948
.1	-2949
.1"	-2950
127	-2951
.0.0	-2952
▁"127	-2953
system	-2954
.0.0.1"	-2955
▁"127.0.0.1"	-2956
INE	-2957
LOC	-2958
eld	-2959
MACH	-2960
LOCAL	-2961
MACHINE	-2962
ToEncrypt	-2963
7)	-2964
▁strncpy	-2965
▁field	-2966
▁fscanf	-2967
▁dr	-2968
▁drive	-2969
▁search	-2970
1234!");	-2971
ServerSocket	-2972
icode	-2973
eth	-2974
oth	-2975
ethod	-2976
▁both	-2977
▁invalid	-2978
RegCreateKey	-2979
RegOpenKeyEx	-2980
SHRegOpenUSKey	-2981
▁.	-2982
▁x	-2983
The	-2984
otent	-2985
▁method	-2986
Signed	-2987
▁bytesToRead	-2988
ference	-2989
ACP	-2990
ECK	-2991
Mul	-2992
▁WC	-2993
COMP	-2994
▁-1,	-2995
CHECK	-2996
Multi	-2997
OSITE	-2998
other	-2999
▁Wide	-3000
CharTo	-3001
▁stack	-3002
▁another	-3003
COMPOSITE	-3004
MultiByte	-3005
▁WideCharTo	-3006
▁staticFive	-3007
▁staticTrue	-3008
▁staticFalse	-3009
COMPOSITECHECK	-3010
▁(*	-3011
arse	-3012
▁Cookie	-3013
▁client	-3014
_43	-3015
00,0	-3016
_43;	-3017
▁blocks	-3018
ident	-3019
Thread	-3020
▁incident	-3021
▁CreateFile	-3022
▁don	-3023
create	-3024
-512");	-3025
sl	-3026
long	-3027
▁ssl	-3028
)(100-	-3029
▁hence	-3030
4".	-3031
lus	-3032
mul	-3033
sty	-3034
tot	-3035
▁*>	-3036
▁32	-3037
▁But	-3038
▁fol	-3039
style	-3040
▁WHAT	-3041
▁away	-3042
▁mach	-3043
▁plus	-3044
▁well	-3045
lowing	-3046
ypical	-3047
▁WHERE	-3048
▁simul	-3049
because	-3050
▁protot	-3051
spective	-3052
▁Because	-3053
▁removes	-3054
▁machines	-3055
▁Microsoft	-3056
▁following	-3057
▁insertion	-3058
▁simulates	-3059
▁perspective	-3060
▁prototypical	-3061
MAX	-3062
_51	-3063
_52	-3064
_53	-3065
_54	-3066
_66	-3067
_67	-3068
_68	-3069
UnsupportedOper	-3070
pty	-3071
empty	-3072
wincrypt	-3073
▁GET	-3074
LENAME	-3075
▁their	-3076
▁GETENV	-3077
passwords	-3078
RpcImpersonate	-3079
ImpersonateSelf	-3080
-7	-3081
98	-3082
ssw	-3083
-798	-3084
▁war	-3085
▁warning	-3086
getPassword	-3087
▁Credentials	-3088
▁owner	-3089
FormatException	-3090
LL	-3091
▁must	-3092
library	-3093
Generic	-3094
▁<=	-3095
▁wcsncpy	-3096
_74	-3097
Cookie	-3098
hostInfo	-3099
▁"\\\\.\\	-3100
its	-3101
ntil	-3102
▁bits	-3103
▁until	-3104
exception	-3105
wb	-3106
stead	-3107
▁double	-3108
▁instead	-3109
▁passwordVector	-3110
▁strncat	-3111
▁wcsncat	-3112
▁privateTrue	-3113
Reliance	-3114
▁pointers	-3115
▁overwrite	-3116
▁undefined	-3117
▁privateFalse	-3118
_01	-3119
URL	-3120
swscanf	-3121
vParameter	-3122
vParameterSpec	-3123
▁dataArray	-3124
▁dataContainer	-3125
setW	-3126
setRead	-3127
▁Readable	-3128
▁Writable	-3129
setReadable	-3130
setWritable	-3131
▁Executable	-3132
setExecutable	-3133
_72	-3134
_73	-3135
Catch	-3136
29	-3137
VS	-3138
dn	-3139
px	-3140
29.	-3141
Bro	-3142
_62	-3143
.100	-3144
327_	-3145
_62;	-3146
aspx	-3147
msdn	-3148
wewb	-3149
▁().	-3150
▁See	-3151
▁Vis	-3152
▁ent	-3153
▁http	-3154
Broken	-3155
Crypto	-3156
▁Visual	-3157
▁compile	-3158
microsoft	-3159
initialize	-3160
▁generates	-3161
mand	-3162
▁give	-3163
▁enter	-3164
▁command	-3165
▁specify	-3166
▁assigned	-3167
▁methods	-3168
TI	-3169
VO	-3170
si	-3171
"),	-3172
.*/	-3173
2",	-3174
ART	-3175
NON	-3176
OLD	-3177
OPT	-3178
▁pi	-3179
)-1,	-3180
,100	-3181
ForS	-3182
INFO	-3183
LATI	-3184
ktop	-3185
otes	-3186
urro	-3187
▁REG	-3188
,100-	-3189
ARTUP	-3190
ATION	-3191
hDesk	-3192
hFile	-3193
ingle	-3194
putwc	-3195
▁step	-3196
FINITE	-3197
INFORM	-3198
LATILE	-3199
OPTION	-3200
Please	-3201
stdout	-3202
▁Files	-3203
▁child	-3204
▁exits	-3205
▁hDesk	-3206
▁hFile	-3207
▁surro	-3208
Example	-3209
PAYLOAD	-3210
hThread	-3211
▁quotes	-3212
VOLATILE	-3213
ktopName	-3214
removeme	-3215
username	-3216
▁PROCESS	-3217
▁STARTUP	-3218
▁handles	-3219
)(100-1),	-3220
ForSingle	-3221
HCRYPTKEY	-3222
▁INFINITE	-3223
▁fileName	-3224
▁wStation	-3225
HCRYPTPROV	-3226
INFORMATION	-3227
hWinStation	-3228
▁successful	-3229
GetLastError	-3230
▁STARTUPINFO	-3231
▁commandLine	-3232
▁desktopName	-3233
▁hWinStation	-3234
▁wStationName	-3235
▁CreateDesktop	-3236
▁CreateProcess	-3237
▁WaitForSingle	-3238
▁RegCreateKeyEx	-3239
adding	-3240
funcPtr	-3241
▁funcPtr	-3242
)*/	-3243
CreateFile	-3244
toBeDecryptedLen	-3245
co	-3246
thing	-3247
_71	-3248
_75	-3249
ior	-3250
▁(3	-3251
▁2)	-3252
▁Clear	-3253
▁prior	-3254
tainerOne	-3255
▁PrintWriter	-3256
(""	-3257
88_	-3258
Dir	-3259
gener	-3260
ateKey	-3261
▁"1234	-3262
TempFile	-3263
byteArray	-3264
▁SecretKey	-3265
generateKey	-3266
createTempFile	-3267
streamFileOutput	-3268
▁SS	-3269
sert	-3270
▁end	-3271
_02	-3272
_03	-3273
_11	-3274
_13	-3275
_12	-3276
OfBytes	-3277
OfBytesRead	-3278
sub	-3279
++;	-3280
mic	-3281
badSource	-3282
erator	-3283
▁clear	-3284
()));	-3285
nel	-3286
annel	-3287
▁channel	-3288
[2]	-3289
▁Encrypt	-3290
payloadLen	-3291
95	-3292
9580	-3293
ially	-3294
otentially	-3295
▁lit	-3296
unionFirst	-3297
unionSecond	-3298
SecureRandom	-3299
23	-3300
ually	-3301
itialization	-3302
42	-3303
_18	-3304
32_0	-3305
PF	-3306
_34_	-3307
▁pre	-3308
▁bind	-3309
LISTEN	-3310
ds	-3311
[10]	-3312
dsAs	-3313
▁ind	-3314
edCre	-3315
ilter	-3316
▁PUTS	-3317
▁viol	-3318
▁REMOVE	-3319
▁RENAME	-3320
dsAsBytes	-3321
▁privilege	-3322
▁unionType	-3323
▁violating	-3324
edCredsAsBytes	-3325
pLdapConnection	-3326
▁pLdapConnection	-3327
▁fis	-3328
123456";	-3329
systemProperty	-3330
_31	-3331
_45	-3332
▁Possibly	-3333
▁printLongLine	-3334
WChars	-3335
getenv	-3336
▁LogonUserA	-3337
▁LogonUserW	-3338
newDirectory	-3339
▁decodeHexChars	-3340
▁decodeHexWChars	-3341
On	-3342
396_	-3343
_41_	-3344
▁cryptoKeyLen	-3345
▁Bad	-3346
With	-3347
mpData	-3348
▁fwrite	-3349
▁badData	-3350
▁GoodSink	-3351
▁functions	-3352
goodfilename	-3353
▁CryptEncrypt	-3354
"\\\\.\\	-3355
1");	-3356
2");	-3357
very	-3358
▁tmpData	-3359
ereference	-3360
76_	-3361
ff	-3362
ech	-3363
exe	-3364
PUTS	-3365
▁eff	-3366
RENAME	-3367
fputwc	-3368
fputws	-3369
▁100-1	-3370
fwscanf	-3371
▁effect	-3372
SNPRINTF	-3373
fwprintf	-3374
putwchar	-3375
▁realloc	-3376
▁Exception	-3377
TR	-3378
Exit	-3379
arge	-3380
large	-3381
▁1);	-3382
btain	-3383
sent	-3384
▁badStatic	-3385
▁directory	-3386
gn	-3387
erous	-3388
gnore	-3389
▁100);	-3390
▁Number	-3391
angerous	-3392
▁Write	-3393
ke	-3394
like	-3395
▁*)(	-3396
▁1),	-3397
▁One	-3398
▁classOne	-3399
▁OneIntClass	-3400
▁Imp	-3401
▁Impersonate	-3402
▁incidentals	-3403
▁insecure	-3404
▁DO	-3405
start	-3406
▁SSLSocket	-3407
▁dataGoodG	-3408
ARI	-3409
▁IV	-3410
00];	-3411
ABLE	-3412
VARI	-3413
[5];	-3414
▁der	-3415
puter	-3416
[200];	-3417
VARIABLE	-3418
▁derived	-3419
▁padding	-3420
▁charBuffer	-3421
encryptedLen	-3422
toBeEncrypted	-3423
OK	-3424
PC	-3425
BUF	-3426
▁(0	-3427
etwe	-3428
▁2),	-3429
▁RPC	-3430
▁cin	-3431
BUFFER	-3432
ToSelf	-3433
client	-3434
etween	-3435
Imperson	-3436
▁between	-3437
badStruct	-3438
vertToSelf	-3439
▁WSAStartup	-3440
CreateProcessA	-3441
▁serviceClient	-3442
angu	-3443
used	-3444
▁every	-3445
▁langu	-3446
▁language	-3447
▁(6)	-3448
dBConnection	-3449
16	-3450
▁hostname	-3451
5.	-3452
8.	-3453
("19	-3454
105.	-3455
168.	-3456
23",	-3457
("192.	-3458
105.23",	-3459
▁FILENAME	-3460
▁anything	-3461
("192.168.	-3462
["	-3463
kd	-3464
128	-3465
395	-3466
▁"]	-3467
kdir	-3468
getEn	-3469
▁PRNG	-3470
▁line	-3471
CIPHER	-3472
▁Input	-3473
▁exist	-3474
byteKey	-3475
▁CIPHER	-3476
▁intOne	-3477
▁byteKey	-3478
hashValue	-3479
▁"1234");	-3480
getEncoded	-3481
▁hashValue	-3482
▁directoryName	-3483
kip	-3484
append	-3485
LD	-3486
Dro	-3487
lev	-3488
old	-3489
188_	-3490
273_	-3491
pped	-3492
▁OLD	-3493
Relev	-3494
Layout	-3495
Search	-3496
▁(100-	-3497
Dropped	-3498
realloc	-3499
▁rename	-3500
Privileg	-3501
Relevant	-3502
▁clearing	-3503
Privileges	-3504
badfilename	-3505
CreateDesktop	-3506
▁like	-3507
SO	-3508
0\\	-3509
961	-3510
9644	-3511
9580\\	-3512
9640\\	-3513
▁users	-3514
▁where	-3515
uncated	-3516
ResultSet	-3517
=0	-3518
Tr	-3519
We	-3520
ATH	-3521
asM	-3522
tle	-3523
▁"&	-3524
(3);	-3525
="))	-3526
PATH	-3527
hasM	-3528
▁ADD	-3529
▁SQL	-3530
▁buf	-3531
▁equ	-3532
▁isr	-3533
=0");	-3534
sWith	-3535
token	-3536
▁then	-3537
Tokens	-3538
cookie	-3539
▁"&");	-3540
▁Parse	-3541
▁param	-3542
▁setup	-3543
hasMore	-3544
▁little	-3545
Resource	-3546
getValue	-3547
▁execute	-3548
▁prepare	-3549
getString	-3550
hardcoded	-3551
nextToken	-3552
substring	-3553
tokenizer	-3554
▁buffread	-3555
startsWith	-3556
▁resultset	-3557
cookieSources	-3558
hasMoreTokens	-3559
StringTokenizer	-3560
:"	-3561
sed	-3562
▁":"	-3563
▁pas	-3564
getUser	-3565
▁passed	-3566
getUserName	-3567
▁200	-3568
▁DOMAIN	-3569
snwprintf	-3570
StructLine	-3571
dataVector	-3572
▁printStructLine	-3573
(5);	-3574
ization	-3575
>(5);	-3576
action	-3577
▁serialize	-3578
toByteArray	-3579
writeObject	-3580
containerOne	-3581
outputObject	-3582
▁ObjectOutput	-3583
▁serialization	-3584
nic	-3585
echnic	-3586
echnically	-3587
▁GoodSource	-3588
▁structCharInt	-3589
local	-3590
eroize	-3591
▁allows	-3592
8)	-3593
176_	-3594
Enco	-3595
Hand	-3596
ling	-3597
Unicode	-3598
Encoding	-3599
Handling	-3600
▁All	-3601
unding	-3602
▁steps	-3603
▁100-1)	-3604
Creation	-3605
Insecure	-3606
▁present	-3607
▁release	-3608
removemegood	-3609
▁surrounding	-3610
ln	-3611
println	-3612
88	-3613
IB	-3614
ISO	-3615
NSI	-3616
UTE	-3617
(128	-3618
ATTR	-3619
NORM	-3620
hrow	-3621
▁188	-3622
▁Per	-3623
▁fri	-3624
IBUTE	-3625
▁ANSI	-3626
▁rece	-3627
(128);	-3628
NORMAL	-3629
▁cipher	-3630
▁layout	-3631
▁Perform	-3632
▁friends	-3633
ATTRIBUTE	-3634
▁received	-3635
▁reliance	-3636
non	-3637
▁SE	-3638
getWriter	-3639
▁skip	-3640
▁strong	-3641
classTwo	-3642
▁overread	-3643
▁printing	-3644
NumberFormat	-3645
▁errorString	-3646
▁(7)	-3647
ently	-3648
▁puts	-3649
herently	-3650
CipherText	-3651
StringToEncrypt	-3652
▁stringToEncrypt	-3653
▁global	-3654
(7)	-3655
ssl	-3656
▁mi	-3657
▁sn	-3658
mics	-3659
▁family	-3660
▁mimics	-3661
SSLSocket	-3662
▁snprintf	-3663
▁badPrivate	-3664
▁badPublicStatic	-3665
315_	-3666
+1];	-3667
ious	-3668
MessageDigest	-3669
▁passwordCopy	-3670
.)	-3671
fi	-3672
▁generic	-3673
ONG	-3674
_41	-3675
msg	-3676
▁UL	-3677
32_1	-3678
[256	-3679
search	-3680
▁ULONG	-3681
HexChar	-3682
jection	-3683
msgfree	-3684
▁PUTENV	-3685
▁filter	-3686
▁fprintf	-3687
▁results	-3688
charFirst	-3689
▁intSigned	-3690
HexCharLine	-3691
structCharInt	-3692
▁CreateMutexA	-3693
▁CreateMutexW	-3694
▁searchSuccess	-3695
▁connectSuccess	-3696
▁passwordHashMap	-3697
20	-3698
▁";	-3699
ABCD	-3700
▁endl	-3701
1234!"	-3702
▁perform	-3703
be	-3704
_21	-3705
beg	-3706
▁::	-3707
begin	-3708
▁ssls	-3709
iterator	-3710
▁sslSocket	-3711
▁longNumber	-3712
▁sslsSocket	-3713
▁GetLastError	-3714
_32	-3715
_42	-3716
_44	-3717
▁each	-3718
▁just	-3719
▁Catch	-3720
Dou	-3721
ider	-3722
mkdir	-3723
Double	-3724
▁failure	-3725
"\\	-3726
_34	-3727
dot	-3728
ran	-3729
ches	-3730
▁5!=5	-3731
▁5==5	-3732
▁bran	-3733
▁CRYPTO	-3734
▁unicode	-3735
▁branches	-3736
privateFalse	-3737
pports	-3738
▁readable	-3739
▁supports	-3740
▁writable	-3741
▁potentially	-3742
ARCH	-3743
▁SEARCH	-3744
(100);	-3745
▁Insert	-3746
▁getenv	-3747
▁need	-3748
passwordVector	-3749
▁equal	-3750
Dangerous	-3751
▁passwordArray	-3752
32();	-3753
▁RAND	-3754
0_	-3755
dataArray	-3756
dataHashMap	-3757
dataContainer	-3758
dataLinkedList	-3759
dataSerialized	-3760
▁dataSerialized	-3761
*/	-3762
Ad	-3763
py	-3764
tc	-3765
3";	-3766
ans	-3767
not	-3768
▁"7	-3769
sues	-3770
ision	-3771
▁copy	-3772
▁cannot	-3773
▁issues	-3774
▁charFirst	-3775
▁truncated	-3776
ERT	-3777
omp	-3778
390_	-3779
▁ASS	-3780
Action	-3781
Without	-3782
▁ASSERT	-3783
ght	-3784
▁fig	-3785
aught	-3786
Attempt	-3787
▁define	-3788
▁figure	-3789
▁defined	-3790
MD	-3791
fI	-3792
▁!	-3793
▁9	-3794
ACH	-3795
ARE	-3796
Off	-3797
STA	-3798
Sub	-3799
Way	-3800
etc	-3801
the	-3802
▁ag	-3803
328_	-3804
DESK	-3805
DEST	-3806
PRNG	-3807
ible	-3808
▁(32	-3809
▁*)"	-3810
▁259	-3811
▁CRE	-3812
▁DET	-3813
▁etc	-3814
ACHED	-3815
SHARE	-3816
▁HWIN	-3817
▁fact	-3818
▁rand	-3819
Revers	-3820
ToHash	-3821
result	-3822
▁HDESK	-3823
▁again	-3824
▁chars	-3825
▁wants	-3826
Nothing	-3827
PROCESS	-3828
fIgnore	-3829
▁CREATE	-3830
▁HWINSTA	-3831
▁RegOpen	-3832
▁Station	-3833
▁station	-3834
Substring	-3835
▁DETACHED	-3836
▁creation	-3837
Reversible	-3838
▁Establish	-3839
fIgnoreHKCU	-3840
▁CreateFileA	-3841
▁CreateFileW	-3842
▁stringHello	-3843
▁technically	-3844
Impersonation	-3845
▁CloseDesktop	-3846
▁RegCreateKey	-3847
▁RegOpenKeyEx	-3848
▁RevertToSelf	-3849
▁STARTUPINFOA	-3850
▁STARTUPINFOW	-3851
DesktopExample	-3852
Initialization	-3853
StationExample	-3854
WindowStationA	-3855
WindowStationW	-3856
RegCreateKeyExA	-3857
RegCreateKeyExW	-3858
RegCreateUSKeyA	-3859
RegCreateUSKeyW	-3860
newgoodfilename	-3861
▁CreateDesktopA	-3862
▁CreateDesktopW	-3863
▁SHRegOpenUSKey	-3864
▁RegCreateKeyExA	-3865
▁RegCreateKeyExW	-3866
Ent	-3867
Enter	-3868
▁vector	-3869
38	-3870
rb	-3871
99]	-3872
)-1;	-3873
[99]	-3874
_01;	-3875
_21_	-3876
_31_	-3877
_32_	-3878
_42_	-3879
_44_	-3880
place	-3881
▁100)	-3882
▁match	-3883
cryption	-3884
▁Cleanup	-3885
placement	-3886
terminated	-3887
▁decryption	-3888
▁passwordMap	-3889
▁passwordList	-3890
mo	-3891
337	-3892
32_3	-3893
ivid	-3894
mote	-3895
▁sen	-3896
337);	-3897
parse	-3898
Caught	-3899
remote	-3900
▁1337);	-3901
parseInt	-3902
▁Integer	-3903
▁individ	-3904
▁sending	-3905
addCookie	-3906
▁individually	-3907
getOutputStream	-3908
("/	-3909
(42	-3910
esn	-3911
tex	-3912
upd	-3913
379_	-3914
verw	-3915
▁Ret	-3916
(42);	-3917
andne	-3918
bytes	-3919
doesn	-3920
▁Will	-3921
395");	-3922
OnExit	-3923
texist	-3924
update	-3925
▁1024;	-3926
verwill	-3927
▁create	-3928
Successf	-3929
▁Rethrow	-3930
▁opening	-3931
secureDir	-3932
testcases	-3933
Successful	-3934
▁byteArray	-3935
bytesToRead	-3936
doesntexist	-3937
andneverwill	-3938
▁StringBuffer	-3939
writerBuffered	-3940
▁IvParameterSpec	-3941
▁UnsupportedOper	-3942
▁ivParameterSpec	-3943
Advapi	-3944
-512)	-3945
▁would	-3946
▁(5==5)	-3947
▁bounds	-3948
▁intFive	-3949
▁X	-3950
▁10)	-3951
act	-3952
▁badGlobal	-3953
stde	-3954
badData	-3955
stdexcept	-3956
▁swprintf	-3957
KerberosKey	-3958
linkedListNext	-3959
linkedListPrev	-3960
▁auth	-3961
▁secure	-3962
▁authentication	-3963
_02;	-3964
_03;	-3965
_04;	-3966
_05;	-3967
_06;	-3968
_07;	-3969
_08;	-3970
_09;	-3971
_10;	-3972
_11;	-3973
_12;	-3974
_13;	-3975
_14;	-3976
_15;	-3977
_16;	-3978
_17;	-3979
_18;	-3980
Is	-3981
My	-3982
NS	-3983
MyS	-3984
sue	-3985
This	-3986
salt	-3987
IsMyS	-3988
avoid	-3989
odify	-3990
reset	-3991
▁561:	-3992
▁dead	-3993
▁iter	-3994
▁salt	-3995
▁issue	-3996
IsMySalt	-3997
Username	-3998
avoidable	-3999
▁iteration	-4000
intVariable	-4001
ThisIsMySalt	-4002
▁Missing	-4003
▁cleared	-4004
▁Dereference	-4005
BP	-4006
mit	-4007
▁-1)	-4008
(100-	-4009
ansmit	-4010
▁Obtain	-4011
ansmitted	-4012
unionType	-4013
▁encryption	-4014
▁transmitted	-4015
(0);	-4016
iple	-4017
▁DES	-4018
iostream	-4019
▁intSecond	-4020
▁RpcImpersonate	-4021
▁ImpersonateSelf	-4022
PEN	-4023
send	-4024
fixed	-4025
▁OPEN	-4026
▁pass	-4027
▁asser	-4028
▁passing	-4029
▁overflows	-4030
▁An	-4031
erms	-4032
untime	-4033
KeyGenerator	-4034
▁now	-4035
Throw	-4036
insert	-4037
intSecond	-4038
▁hostInfo	-4039
▁BadSource	-4040
▁unionFirst	-4041
▁unionSecond	-4042
BC	-4043
999	-4044
CBC	-4045
▁999	-4046
▁oper	-4047
67	-4048
(8)	-4049
afe	-4050
▁safe	-4051
Operation	-4052
badStatic	-4053
▁operation	-4054
▁256	-4055
sider	-4056
▁down	-4057
▁shut	-4058
sidered	-4059
▁considered	-4060
▁libraryName	-4061
initialization	-4062
ew	-4063
rc	-4064
61_	-4065
src	-4066
LOOP	-4067
▁MAX	-4068
▁act	-4069
▁few	-4070
FILENAME	-4071
classOne	-4072
passwordPtr	-4073
▁about	-4074
▁outside	-4075
Only	-4076
▁change	-4077
sslSocket	-4078
▁incidental	-4079
Com	-4080
Fail	-4081
NameA	-4082
SetCom	-4083
Failure	-4084
btained	-4085
▁computer	-4086
▁obtained	-4087
puterNameA	-4088
SetComputerNameA	-4089
563_	-4090
_61_	-4091
ever	-4092
Unused	-4093
dotdot	-4094
unused	-4095
▁exists	-4096
ice	-4097
tmp	-4098
▁ENV	-4099
▁printf	-4100
,"	-4101
LM	-4102
Om	-4103
DNS	-4104
Dec	-4105
rpc	-4106
ups	-4107
196_	-4108
222_	-4109
223_	-4110
242_	-4111
247_	-4112
761_	-4113
HKLM	-4114
Look	-4115
alic	-4116
▁(!*	-4117
▁Put	-4118
▁par	-4119
Omiss	-4120
Trunc	-4121
clear	-4122
putws	-4123
▁100-	-4124
modify	-4125
▁fread	-4126
▁malic	-4127
Lookups	-4128
▁parses	-4129
▁spaces	-4130
Decision	-4131
Omission	-4132
▁BadSink	-4133
▁Release	-4134
BadSource	-4135
plaintext	-4136
▁iterator	-4137
▁surround	-4138
Conversion	-4139
Inherently	-4140
StructLong	-4141
Truncation	-4142
▁malicious	-4143
removemebad	-4144
newbadfilename	-4145
oldbadfilename	-4146
oldgoodfilename	-4147
9644\\	-4148
9644");	-4149
▁after	-4150
04	-4151
33	-4152
unded	-4153
omplete	-4154
longNumber	-4155
45	-4156
equ	-4157
209_	-4158
338_	-4159
382_	-4160
459_	-4161
Leak	-4162
Null	-4163
Weak	-4164
_67_	-4165
Trace	-4166
▁weak	-4167
equals	-4168
SecretKey	-4169
Temporary	-4170
Incomplete	-4171
StackTrace	-4172
NullPointer	-4173
printStackTrace	-4174
▁wait	-4175
"\"	-4176
).\	-4177
fis	-4178
▁6;	-4179
comp	-4180
olon	-4181
▁"\"	-4182
acter	-4183
▁twos	-4184
mkdirs	-4185
random	-4186
micolon	-4187
▁freeing	-4188
▁deleting	-4189
complement	-4190
▁character	-4191
deleteOnExit	-4192
▁reallocating	-4193
twoIntsStruct	-4194
ND	-4195
COM	-4196
You	-4197
adm	-4198
))->	-4199
476_	-4200
Buil	-4201
MAND	-4202
libs	-4203
▁adm	-4204
There	-4205
ached	-4206
nable	-4207
ories	-4208
▁admin	-4209
Builder	-4210
COMMAND	-4211
▁Thread	-4212
▁member	-4213
lockSize	-4214
▁Include	-4215
▁message	-4216
▁reached	-4217
▁stronger	-4218
nextDouble	-4219
Dereference	-4220
▁directories	-4221
▁unsupported	-4222
▁StringBuilder	-4223
erp	-4224
rel	-4225
+");	-4226
cast	-4227
quir	-4228
▁(5)	-4229
▁*>(	-4230
▁INT	-4231
Super	-4232
reint	-4233
erpret	-4234
object	-4235
▁Squir	-4236
▁secret	-4237
▁Squirrel	-4238
reinterpret	-4239
byteCipherText	-4240
▁byteCipherText	-4241
_81	-4242
badPrivate	-4243
ObjectOutput	-4244
▁containerOne	-4245
SSLSocketFactory	-4246
charLine	-4247
▁properly	-4248
▁printWcharLine	-4249
60	-4250
BT	-4251
PE	-4252
XX	-4253
cn	-4254
)",	-4255
-1,	-4256
418	-4257
737	-4258
90_	-4259
=";	-4260
Loo	-4261
REE	-4262
SCO	-4263
SSL	-4264
[25	-4265
led	-4266
▁St	-4267
00);	-4268
427_	-4269
606_	-4270
LDAP	-4271
Loop	-4272
SUBT	-4273
ldap	-4274
lied	-4275
supp	-4276
SCOPE	-4277
Uncon	-4278
[250]	-4279
[256]	-4280
fopen	-4281
▁Http	-4282
▁lead	-4283
▁them	-4284
737418	-4285
[256];	-4286
filter	-4287
unbind	-4288
▁Store	-4289
▁Typic	-4290
Element	-4291
SUBTREE	-4292
trolled	-4293
▁256-1,	-4294
▁ignore	-4295
▁potent	-4296
supplied	-4297
Injection	-4298
localhost	-4299
▁HttpOnly	-4300
▁Injection	-4301
▁Typically	-4302
▁potential	-4303
Uncontrolled	-4304
▁LDAPMessage	-4305
▁unencrypted	-4306
searchSuccess	-4307
▁passwordGood	-4308
connectSuccess	-4309
GData	-4310
40	-4311
Sh	-4312
ts	-4313
pir	-4314
404_	-4315
672_	-4316
Shut	-4317
_31;	-4318
_32;	-4319
_41;	-4320
_44;	-4321
_45;	-4322
down	-4323
rant	-4324
Expir	-4325
Shutdown	-4326
▁however	-4327
Hardcoded	-4328
Structure	-4329
Expiration	-4330
_34;	-4331
▁range	-4332
▁specifying	-4333
he	-4334
_68_	-4335
▁cau	-4336
GENERIC	-4337
▁causing	-4338
▁performing	-4339
32_4	-4340
_21;	-4341
SER	-4342
UNC	-4343
ATED	-4344
_42;	-4345
_61;	-4346
▁USER	-4347
▁easy	-4348
▁gets	-4349
UNCATED	-4350
ferences	-4351
▁USERNAME	-4352
▁dangerous	-4353
▁inherently	-4354
▁references	-4355
▁unionStructLong	-4356
▁Inc	-4357
ignment	-4358
▁Incorrect	-4359
no	-4360
Non	-4361
588_	-4362
▁map	-4363
Child	-4364
▁Open	-4365
▁actually	-4366
charBuffer	-4367
GP	-4368
203	-4369
EST	-4370
gul	-4371
▁>>	-4372
040;	-4373
DESe	-4374
Seed	-4375
aken	-4376
orld	-4377
pack	-4378
▁(8)	-4379
▁Ver	-4380
▁dep	-4381
▁isn	-4382
10203	-4383
gular	-4384
hello	-4385
icate	-4386
ipleD	-4387
▁Cond	-4388
▁DEST	-4389
▁UINT	-4390
▁prov	-4391
DESede	-4392
byaddr	-4393
ranted	-4394
stderr	-4395
substr	-4396
▁World	-4397
▁alter	-4398
▁flaws	-4399
▁occur	-4400
▁taken	-4401
▁terms	-4402
AsUserA	-4403
AsUserW	-4404
Runtime	-4405
packing	-4406
▁Verify	-4407
▁action	-4408
▁depends	-4409
▁gethost	-4410
▁hostent	-4411
▁regular	-4412
▁returns	-4413
▁tripleD	-4414
▁waiting	-4415
10203040;	-4416
Attempted	-4417
intSigned	-4418
▁Insecure	-4419
▁indicate	-4420
▁unsigned	-4421
DoubleLine	-4422
▁Condition	-4423
▁alignment	-4424
▁condition	-4425
▁connected	-4426
▁desCipher	-4427
Impersonated	-4428
RevertToSelf	-4429
RegCreateKeyA	-4430
RegCreateKeyW	-4431
RegOpenKeyExA	-4432
RegOpenKeyExW	-4433
CreateProcessW	-4434
▁RegCreateKeyA	-4435
▁RegCreateKeyW	-4436
▁RegOpenKeyExA	-4437
▁RegOpenKeyExW	-4438
▁gethostbyaddr	-4439
SHRegOpenUSKeyA	-4440
SHRegOpenUSKeyW	-4441
stringSubstring	-4442
ConnectNamedPipe	-4443
serviceClientLen	-4444
▁SHRegOpenUSKeyA	-4445
▁SHRegOpenUSKeyW	-4446
▁printDoubleLine	-4447
▁stringSubstring	-4448
▁tripleDesCipher	-4449
0*	-4450
df	-4451
(50*	-4452
asdf	-4453
▁dec	-4454
▁var	-4455
small	-4456
▁thus	-4457
▁assert	-4458
variable	-4459
▁copying	-4460
▁various	-4461
▁avoiding	-4462
CS	-4463
PK	-4464
_1/	-4465
_2/	-4466
_3/	-4467
cri	-4468
dic	-4469
▁0:	-4470
)));	-4471
PKCS	-4472
_1\\	-4473
_2\\	-4474
_3\\	-4475
plic	-4476
ptor	-4477
▁sequ	-4478
▁text	-4479
395"))	-4480
_3/");	-4481
cipher	-4482
plicit	-4483
Padding	-4484
_3\\");	-4485
criptor	-4486
▁predic	-4487
▁"1234",	-4488
directory	-4489
▁explicit	-4490
▁sequence	-4491
▁semicolon	-4492
isSuccessful	-4493
▁predictable	-4494
directoryName	-4495
messageDigest	-4496
▁isSuccessful	-4497
▁systemProperty	-4498
upt	-4499
397_	-4500
upted	-4501
Interr	-4502
unnable	-4503
▁myStruct	-4504
Interrupted	-4505
_22;	-4506
▁BAD	-4507
ven	-4508
Dest	-4509
Lock	-4510
▁even	-4511
required	-4512
Destination	-4513
requiredSize	-4514
passwordArray	-4515
eral	-4516
(200);	-4517
▁strcat	-4518
▁wcscat	-4519
hostname	-4520
▁literal	-4521
badGlobal	-4522
structType	-4523
9580");	-4524
66	-4525
665_	-4526
▁still	-4527
dataGood	-4528
dataGoodBuffer	-4529
map	-4530
((10	-4531
(256	-4532
pies	-4533
▁lock	-4534
vector	-4535
▁copies	-4536
▁dataMap	-4537
▁dataList	-4538
▁specific	-4539
DriverManager	-4540
ef	-4541
Bod	-4542
dit	-4543
Body	-4544
▁SSL	-4545
oring	-4546
efault	-4547
ditions	-4548
▁storing	-4549
getDefault	-4550
▁conditions	-4551
createSocket	-4552
▁GoodSinkBody	-4553
[1	-4554
throw	-4555
dotdotdot	-4556
Do	-4557
[1]	-4558
▁--	-4559
wgetenv	-4560
77	-4561
HO	-4562
rt	-4563
120	-4564
4")	-4565
=0;	-4566
Ass	-4567
ECR	-4568
dce	-4569
pri	-4570
rou	-4571
▁(;	-4572
▁0.	-4573
▁15	-4574
▁SI	-4575
▁Tr	-4576
▁us	-4577
617_	-4578
676_	-4579
Four	-4580
HOST	-4581
aint	-4582
lper	-4583
▁err	-4584
▁tra	-4585
Asser	-4586
ECRET	-4587
Reach	-4588
catch	-4589
ether	-4590
igger	-4591
ropri	-4592
rough	-4593
rpcrt	-4594
verse	-4595
▁note	-4596
▁putc	-4597
▁real	-4598
▁unbo	-4599
Fourth	-4600
ainten	-4601
double	-4602
rement	-4603
rpcdce	-4604
▁doing	-4605
▁fputc	-4606
▁fputs	-4607
▁putwc	-4608
▁scanf	-4609
▁start	-4610
charPtr	-4611
wremove	-4612
wrename	-4613
▁100-1,	-4614
▁Buffer	-4615
▁SECRET	-4616
▁Triple	-4617
▁fputwc	-4618
▁fputws	-4619
▁sscanf	-4620
▁writes	-4621
▁wscanf	-4622
BPrivate	-4623
HOSTNAME	-4624
TestPipe	-4625
▁catches	-4626
▁fwscanf	-4627
▁putchar	-4628
▁swscanf	-4629
▁through	-4630
▁trigger	-4631
▁whether	-4632
ArraySink	-4633
Assertion	-4634
Reachable	-4635
TRUNCATED	-4636
Throwable	-4637
rementing	-4638
truncated	-4639
▁Overflow	-4640
▁appropri	-4641
▁boundary	-4642
▁existing	-4643
▁fwprintf	-4644
▁putwchar	-4645
▁traverse	-4646
Descriptor	-4647
aintenance	-4648
▁assertion	-4649
▁unbounded	-4650
Potentially	-4651
▁reallocate	-4652
▁Incorrectly	-4653
▁Potentially	-4654
▁incrementing	-4655
▁appropriately	-4656
#/	-4657
#/>	-4658
asn	-4659
▁"23	-4660
▁det	-4661
▁GOOD	-4662
loadLibrary	-4663
2,	-4664
▁sc	-4665
▁ti	-4666
329_	-4667
336_	-4668
378_	-4669
395_	-4670
Mode	-4671
Same	-4672
nown	-4673
with	-4674
▁rat	-4675
Perms	-4676
Using	-4677
while	-4678
▁Math	-4679
▁known	-4680
▁trace	-4681
▁Random	-4682
▁overly	-4683
▁rather	-4684
▁Runtime	-4685
▁provider	-4686
getRuntime	-4687
▁throwable	-4688
insecureDir	-4689
▁Permissions	-4690
FileOutputStream	-4691
.0;	-4692
MIN	-4693
ays	-4694
cce	-4695
fix	-4696
war	-4697
wid	-4698
▁bo	-4699
Host	-4700
anis	-4701
ardw	-4702
lent	-4703
odel	-4704
umpt	-4705
▁Log	-4706
▁Mod	-4707
▁acc	-4708
Range	-4709
adays	-4710
derly	-4711
quiva	-4712
width	-4713
▁5.0;	-4714
▁LONG	-4715
▁mech	-4716
▁upon	-4717
Failed	-4718
anisms	-4719
thread	-4720
▁depen	-4721
▁hardw	-4722
▁model	-4723
▁succe	-4724
▁unwar	-4725
omplish	-4726
▁Modify	-4727
▁equiva	-4728
derlying	-4729
umptions	-4730
▁bounded	-4731
▁decision	-4732
▁hardware	-4733
▁nowadays	-4734
▁security	-4735
▁dependent	-4736
▁succeeded	-4737
intUnsigned	-4738
▁accomplish	-4739
▁equivalent	-4740
▁everything	-4741
▁mechanisms	-4742
▁underlying	-4743
▁Technically	-4744
▁assumptions	-4745
▁impersonate	-4746
▁unwarranted	-4747
▁functionality	-4748
av	-4749
du	-4750
(")	-4751
_63	-4752
_64	-4753
_65	-4754
ces	-4755
seu	-4756
sle	-4757
383_	-4758
fine	-4759
getB	-4760
▁far	-4761
▁hav	-4762
▁man	-4763
duces	-4764
kdirs	-4765
oping	-4766
seudo	-4767
sleep	-4768
▁".\\	-4769
▁(");	-4770
(256);	-4771
Direct	-4772
Threads	-4773
▁Define	-4774
▁equals	-4775
▁having	-4776
▁inside	-4777
▁mkdirs	-4778
▁pseudo	-4779
sentence	-4780
▁calling	-4781
▁justify	-4782
▁rethrow	-4783
▁scoping	-4784
blockSize	-4785
nextBytes	-4786
statement	-4787
▁Runnable	-4788
▁manually	-4789
▁produces	-4790
▁sentence	-4791
getMessage	-4792
▁blockSize	-4793
▁threadOne	-4794
errorString	-4795
getAbsolute	-4796
getBlockSize	-4797
▁deleteOnExit	-4798
getAbsolutePath	-4799
"(	-4800
sA	-4801
sW	-4802
-10	-4803
fre	-4804
▁"(	-4805
Root	-4806
ices	-4807
unts	-4808
initA	-4809
initW	-4810
stdio	-4811
wldap	-4812
▁0-10	-4813
putenv	-4814
▁10000	-4815
Winldap	-4816
freopen	-4817
▁counts	-4818
▁putenv	-4819
73741824	-4820
73741825	-4821
▁indices	-4822
▁allocate	-4823
SystemRoot	-4824
▁1073741825	-4825
▁generating	-4826
▁passwordBad	-4827
▁0-1073741824	-4828
▁charArraySink	-4829
▁passwordGoodB	-4830
▁passwordGoodG	-4831
passwordHashMap	-4832
8,	-4833
8-	-4834
CI	-4835
RD	-4836
TF	-4837
...	-4838
250	-4839
ALW	-4840
AYS	-4841
CII	-4842
CRE	-4843
bit	-4844
ets	-4845
ict	-4846
oct	-4847
▁AS	-4848
RDWR	-4849
▁(8-	-4850
▁UTF	-4851
▁our	-4852
▁usu	-4853
CREAT	-4854
IREAD	-4855
▁Also	-4856
▁dict	-4857
▁none	-4858
ALWAYS	-4859
IWRITE	-4860
actice	-4861
andard	-4862
octets	-4863
stants	-4864
▁ASCII	-4865
▁actual	-4866
▁dictate	-4867
▁matches	-4868
▁usually	-4869
▁practice	-4870
▁standard	-4871
▁constants	-4872
value	-4873
▁alloc	-4874
dataBad	-4875
▁allocated	-4876
dataBadBuffer	-4877
▁initial	-4878
EM	-4879
cm	-4880
ls	-4881
Dup	-4882
YST	-4883
cmd	-4884
▁Ex	-4885
▁PC	-4886
32_2	-4887
426_	-4888
675_	-4889
OPEN	-4890
Untr	-4891
_51_	-4892
_52_	-4893
_53_	-4894
_54_	-4895
_63_	-4896
_64_	-4897
_65_	-4898
_66_	-4899
writ	-4900
▁dir	-4901
YSTEM	-4902
popen	-4903
usted	-4904
Duplic	-4905
uninit	-4906
▁POPEN	-4907
bStatic	-4908
ecuting	-4909
▁(5!=5)	-4910
▁PCLOSE	-4911
▁Source	-4912
▁program	-4913
Duplicate	-4914
Untrusted	-4915
Operations	-4916
▁Executing	-4917
BPublicStatic	-4918
32_45_	-4919
lperClass	-4920
▁correctly	-4921
"/	-4922
BStatic	-4923
59	-4924
::	-4925
10_	-4926
Doe	-4927
irt	-4928
+1)*	-4929
250-	-4930
591_	-4931
XXXX	-4932
15");	-4933
▁Data	-4934
((10)*	-4935
32_01_	-4936
32_02_	-4937
32_03_	-4938
32_04_	-4939
32_05_	-4940
32_06_	-4941
32_07_	-4942
32_08_	-4943
32_09_	-4944
32_10_	-4945
32_11_	-4946
32_12_	-4947
32_13_	-4948
32_14_	-4949
32_15_	-4950
32_16_	-4951
32_17_	-4952
32_18_	-4953
Locked	-4954
irtual	-4955
▁XXXXX	-4956
▁leaves	-4957
((10+1)*	-4958
Improperly	-4959
irtualLock	-4960
passwordMap	-4961
passwordRef	-4962
cryptoKeyPtr	-4963
passwordList	-4964
▁passwordRef	-4965
urp	-4966
▁*(	-4967
...)	-4968
▁STL	-4969
▁purp	-4970
▁(...)	-4971
▁purpose	-4972
▁BadClass	-4973
▁generate	-4974
▁exceptions	-4975
01	-4976
03	-4977
05	-4978
_,	-4979
ug	-4980
wi	-4981
80;	-4982
Act	-4983
cmp	-4984
ert	-4985
ird	-4986
▁Fa	-4987
▁TR	-4988
773_	-4989
775_	-4990
antt	-4991
atus	-4992
bata	-4993
main	-4994
wise	-4995
▁DNS	-4996
▁How	-4997
▁MSB	-4998
▁bug	-4999
Third	-5000
every	-5001
order	-5002
uming	-5003
▁Some	-5004
▁alth	-5005
▁done	-5006
▁fash	-5007
▁form	-5008
Active	-5009
anttld	-5010
assert	-5011
ermine	-5012
strcmp	-5013
▁DOING	-5014
▁comes	-5015
▁doesn	-5016
▁extra	-5017
▁putws	-5018
▁super	-5019
BadOnly	-5020
batable	-5021
▁Failed	-5022
▁fields	-5023
▁locked	-5024
▁modify	-5025
▁pragma	-5026
▁really	-5027
▁remain	-5028
▁safely	-5029
▁status	-5030
boundary	-5031
nonexist	-5032
▁However	-5033
▁aligned	-5034
▁charPtr	-5035
▁failing	-5036
▁fashion	-5037
▁granted	-5038
▁reverse	-5039
Reference	-5040
▁although	-5041
▁assuming	-5042
charFourth	-5043
everything	-5044
▁TRUNCATED	-5045
▁charThird	-5046
▁debatable	-5047
▁determine	-5048
▁otherwise	-5049
▁therefore	-5050
CloseHandle	-5051
structChars	-5052
▁charFourth	-5053
▁charSecond	-5054
▁extraction	-5055
▁superclass	-5056
▁Maintenance	-5057
▁maintenance	-5058
▁structChars	-5059
nonexistanttld	-5060
unionStructLong	-5061
."	-5062
1)	-5063
2)	-5064
VM	-5065
cu	-5066
(56	-5067
01,	-5068
02,	-5069
03,	-5070
04,	-5071
476	-5072
690	-5073
92,	-5074
Doc	-5075
__3	-5076
eep	-5077
ire	-5078
mes	-5079
via	-5080
▁Sh	-5081
▁me	-5082
(112	-5083
05};	-5084
128,	-5085
5");	-5086
690)	-5087
SEED	-5088
abil	-5089
ccor	-5090
ired	-5091
math	-5092
ored	-5093
pply	-5094
self	-5095
▁dif	-5096
▁mut	-5097
▁off	-5098
(56);	-5099
block	-5100
iders	-5101
veral	-5102
▁192,	-5103
▁Null	-5104
▁SEED	-5105
▁Skip	-5106
▁docu	-5107
▁keep	-5108
▁time	-5109
▁what	-5110
(112);	-5111
avaDoc	-5112
eroper	-5113
ferent	-5114
▁(128,	-5115
▁Accor	-5116
▁means	-5117
▁times	-5118
ability	-5119
setSeed	-5120
▁Should	-5121
▁decide	-5122
▁detect	-5123
▁itself	-5124
▁notice	-5125
▁stored	-5126
▁supply	-5127
(128);')	-5128
response	-5129
▁Servlet	-5130
▁desired	-5131
▁mutable	-5132
▁several	-5133
semicolon	-5134
▁document	-5135
▁According	-5136
▁different	-5137
▁existence	-5138
▁interoper	-5139
▁providers	-5140
ereferences	-5141
libraryName	-5142
▁explicitly	-5143
StringBuffer	-5144
keyGenerator	-5145
▁dereferences	-5146
IvParameterSpec	-5147
EE	-5148
my	-5149
Ali	-5150
alc	-5151
Void	-5152
[]);	-5153
Alive	-5154
alcul	-5155
ement	-5156
▁(256	-5157
32_22_	-5158
▁manag	-5159
(1000);	-5160
VoidPtr	-5161
isAlive	-5162
▁calcul	-5163
(10000);	-5164
myStruct	-5165
runnable	-5166
threadOne	-5167
▁runnable	-5168
structFirst	-5169
▁management	-5170
▁calculation	-5171
ServletBadOnly	-5172
▁passwordVoidPtr	-5173
32_34_	-5174
wputenv	-5175
▁He	-5176
▁HelperClass	-5177
▁FileNotFound	-5178
13	-5179
initialized	-5180
▁descriptor	-5181
","	-5182
+",	-5183
+1;	-5184
FIX	-5185
RCE	-5186
SOU	-5187
ten	-5188
usr	-5189
_72;	-5190
_73;	-5191
_74;	-5192
FIXED	-5193
32_41_	-5194
SOURCE	-5195
SYSTEM	-5196
fclose	-5197
▁popen	-5198
command	-5199
ecution	-5200
writing	-5201
written	-5202
▁SYSTEM	-5203
▁freopen	-5204
▁execution	-5205
▁overwritten	-5206
▁uninitialized	-5207
▁badClassObject	-5208
AAAAAAAAAAAAAAAA	-5209
▁No	-5210
AbstractTestCase	-5211
32_61	-5212
zFile	-5213
▁wide	-5214
"15");	-5215
▁Error	-5216
▁Point	-5217
▁"15");	-5218
VirtualLock	-5219
▁VirtualLock	-5220
02	-5221
+1)	-5222
▁treat	-5223
BadSink	-5224
wsystem	-5225
GoodSink	-5226
▁treating	-5227
HelperClass	-5228
)(	-5229
lx	-5230
zip	-5231
▁he	-5232
(256-	-5233
▁(250	-5234
)(250-	-5235
)(256-	-5236
32_21_	-5237
32_31_	-5238
32_32_	-5239
32_42_	-5240
32_44_	-5241
32_61_	-5242
ipFile	-5243
▁(250-	-5244
▁(256-	-5245
▁zFile	-5246
BGlobal	-5247
dataMap	-5248
▁helper	-5249
dataList	-5250
GoodSource	-5251
▁Sensitive	-5252
ArraySource	-5253
▁improperly	-5254
▁cryptoKeyCopy	-5255
ecl	-5256
▁Decl	-5257
entrant	-5258
▁Declare	-5259
3]	-5260
[4	-5261
(10	-5262
ANT	-5263
IDE	-5264
[3]	-5265
▁';	-5266
131_	-5267
135_	-5268
464_	-5269
ENTR	-5270
LOCK	-5271
Sent	-5272
[4];	-5273
inel	-5274
▁rest	-5275
REENTR	-5276
member	-5277
pclose	-5278
wcscpy	-5279
▁checks	-5280
▁pclose	-5281
▁wpopen	-5282
Addition	-5283
Sentinel	-5284
▁printed	-5285
REENTRANT	-5286
▁filename	-5287
▁pointing	-5288
▁dataGoodB	-5289
entrantLock	-5290
▁FileReader	-5291
▁readerFile	-5292
▁passwordPtr	-5293
▁structFirst	-5294
charArraySink	-5295
▁charArraySource	-5296
this	-5297
helper	-5298
BadClass	-5299
badClassObject	-5300
84	-5301
Id	-5302
2_0	-5303
TEN	-5304
fus	-5305
ptr	-5306
(*((	-5307
32_6	-5308
843_	-5309
ANCE	-5310
Memb	-5311
WIDE	-5312
▁10*	-5313
▁May	-5314
Fixed	-5315
aling	-5316
▁250-	-5317
▁256-	-5318
▁MAIN	-5319
Confus	-5320
▁intId	-5321
Members	-5322
TENANCE	-5323
tmpData	-5324
ptrArray	-5325
Confusion	-5326
readString	-5327
readerFile	-5328
▁classname	-5329
▁helperBad	-5330
▁helperGood	-5331
▁readString	-5332
cryptoKeyRef	-5333
▁MAINTENANCE	-5334
▁cryptoKeyRef	-5335
▁ReentrantLock	-5336
11	-5337
8;	-5338
NI	-5339
DRE	-5340
HUN	-5341
NIT	-5342
Uns	-5343
isf	-5344
▁8;	-5345
(10*	-5346
DRED	-5347
Link	-5348
[2];	-5349
(10);	-5350
Unsat	-5351
short	-5352
NITest	-5353
assign	-5354
getInt	-5355
isfied	-5356
strcpy	-5357
wpopen	-5358
▁short	-5359
HUNDRED	-5360
Streams	-5361
▁Streams	-5362
▁runTest	-5363
BadNumber	-5364
assigning	-5365
▁Attempts	-5366
helperGood	-5367
isfiedLink	-5368
▁intNumber	-5369
Initialized	-5370
getIntArray	-5371
ipException	-5372
▁reassigning	-5373
UnsatisfiedLink	-5374
44	-5375
46	-5376
Sc	-5377
-1;	-5378
00_	-5379
2_1	-5380
Add	-5381
Exp	-5382
ONE	-5383
▁3;	-5384
111_	-5385
248_	-5386
440_	-5387
468_	-5388
500_	-5389
562_	-5390
Comp	-5391
atoi	-5392
getc	-5393
oper	-5394
ries	-5395
utom	-5396
)+1];	-5397
135_4	-5398
135_6	-5399
32_33	-5400
32_43	-5401
32_62	-5402
Field	-5403
const	-5404
ected	-5405
first	-5406
leted	-5407
▁WIDE	-5408
▁bool	-5409
▁self	-5410
▁your	-5411
32_33;	-5412
32_43;	-5413
32_62;	-5414
Really	-5415
return	-5416
setInt	-5417
unlock	-5418
▁autom	-5419
Address	-5420
Scaling	-5421
cessary	-5422
▁Method	-5423
▁caught	-5424
▁format	-5425
▁malloc	-5426
▁native	-5427
Expected	-5428
Uncaught	-5429
atically	-5430
operator	-5431
▁entered	-5432
▁entries	-5433
▁intGood	-5434
▁scaling	-5435
▁streams	-5436
Completed	-5437
allocated	-5438
helperBad	-5439
intBuffer	-5440
▁returned	-5441
▁throwing	-5442
FileReader	-5443
assignment	-5444
▁intBuffer	-5445
writeString	-5446
printMembers	-5447
ReentrantLock	-5448
▁intBadNumber	-5449
▁printMembers	-5450
▁automatically	-5451
charArraySource	-5452
)"	-5453
.,	-5454
1,	-5455
=(	-5456
db	-5457
)->	-5458
-41	-5459
00)	-5460
33;	-5461
41;	-5462
42;	-5463
6).	-5464
How	-5465
cur	-5466
lut	-5467
▁()	-5468
▁(2	-5469
1_01	-5470
1_02	-5471
1_03	-5472
1_04	-5473
1_05	-5474
1_06	-5475
1_07	-5476
1_08	-5477
1_09	-5478
1_10	-5479
1_11	-5480
1_12	-5481
1_13	-5482
1_14	-5483
1_15	-5484
1_16	-5485
1_17	-5486
2_01	-5487
2_02	-5488
2_03	-5489
2_04	-5490
2_05	-5491
2_06	-5492
2_07	-5493
2_08	-5494
2_09	-5495
2_10	-5496
2_11	-5497
2_12	-5498
2_13	-5499
2_14	-5500
2_15	-5501
2_16	-5502
2_17	-5503
5_01	-5504
5_02	-5505
5_03	-5506
5_04	-5507
5_05	-5508
5_06	-5509
5_07	-5510
5_08	-5511
5_09	-5512
5_10	-5513
5_11	-5514
5_12	-5515
5_13	-5516
5_14	-5517
5_15	-5518
5_16	-5519
5_17	-5520
Star	-5521
[1];	-5522
rent	-5523
ride	-5524
▁11;	-5525
▁1];	-5526
▁22;	-5527
▁ONE	-5528
▁len	-5529
▁top	-5530
▁zip	-5531
1());	-5532
32_01	-5533
aring	-5534
level	-5535
locks	-5536
nders	-5537
truct	-5538
▁3)->	-5539
▁Over	-5540
▁They	-5541
▁unne	-5542
-416).	-5543
1()");	-5544
135_33	-5545
135_43	-5546
135_62	-5547
32_01;	-5548
concur	-5549
locked	-5550
lution	-5551
▁(200)	-5552
▁tests	-5553
135_33;	-5554
135_43;	-5555
135_62;	-5556
intGood	-5557
tructor	-5558
▁Unlock	-5559
▁inital	-5560
▁unsafe	-5561
▁within	-5562
Starting	-5563
function	-5564
structor	-5565
▁element	-5566
▁renders	-5567
Initializ	-5568
▁Function	-5569
▁Override	-5570
▁complete	-5571
▁operator	-5572
▁solution	-5573
▁unlocked	-5574
concurrent	-5575
stringLine	-5576
threadsafe	-5577
▁declaring	-5578
▁necessary	-5579
▁returning	-5580
▁specifics	-5581
shortBuffer	-5582
▁contructor	-5583
▁incomplete	-5584
▁stringLine	-5585
Initializing	-5586
intBadNumber	-5587
▁IOException	-5588
▁constructor	-5589
▁initializer	-5590
▁shortBuffer	-5591
▁unnecessary	-5592
isInitialized	-5593
▁initalization	-5594
▁isInitialized	-5595
!"	-5596
""	-5597
"]	-5598
&"	-5599
&&	-5600
(-	-5601
(4	-5602
(6	-5603
)&	-5604
)+	-5605
*;	-5606
+)	-5607
,0	-5608
,2	-5609
--	-5610
-3	-5611
./	-5612
/"	-5613
/*	-5614
0'	-5615
0)	-5616
0+	-5617
0,	-5618
18	-5619
2\	-5620
4"	-5621
4,	-5622
4;	-5623
4]	-5624
5"	-5625
5;	-5626
5}	-5627
6"	-5628
6,	-5629
64	-5630
71	-5631
78	-5632
7:	-5633
7;	-5634
8"	-5635
81	-5636
9.	-5637
:/	-5638
:\	-5639
<<	-5640
<=	-5641
>=	-5642
>>	-5643
AE	-5644
AI	-5645
AK	-5646
AU	-5647
AW	-5648
Al	-5649
Ar	-5650
At	-5651
BA	-5652
BG	-5653
Bl	-5654
Bu	-5655
CD	-5656
CK	-5657
CL	-5658
CR	-5659
CT	-5660
CW	-5661
Ca	-5662
Cl	-5663
Co	-5664
DB	-5665
DR	-5666
DW	-5667
Da	-5668
De	-5669
Di	-5670
EO	-5671
FA	-5672
FE	-5673
FF	-5674
FG	-5675
FL	-5676
FS	-5677
Fo	-5678
Fr	-5679
Fu	-5680
Gl	-5681
Go	-5682
HC	-5683
HE	-5684
HM	-5685
HT	-5686
HU	-5687
HW	-5688
Ha	-5689
IA	-5690
IR	-5691
IX	-5692
Il	-5693
It	-5694
Ke	-5695
LC	-5696
LF	-5697
LG	-5698
MI	-5699
-4	-5700
0"	-5701
0-	-5702
36	-5703
43	-5704
;}	-5705
AS	-5706
Cr	-5707
DL	-5708
GD	-5709
HA	-5710
Ht	-5711
IL	-5712
MS	-5713
Mi	-5714
Mo	-5715
NC	-5716
NF	-5717
NM	-5718
NT	-5719
NU	-5720
NV	-5721
NY	-5722
No	-5723
Nu	-5724
OA	-5725
OE	-5726
OM	-5727
ON	-5728
OO	-5729
Op	-5730
PM	-5731
PO	-5732
PT	-5733
Pa	-5734
Pi	-5735
Pt	-5736
Pu	-5737
RI	-5738
RN	-5739
RO	-5740
RS	-5741
RY	-5742
Ru	-5743
SB	-5744
SL	-5745
SQ	-5746
SY	-5747
Sa	-5748
Si	-5749
Sq	-5750
TA	-5751
TB	-5752
TG	-5753
TL	-5754
TT	-5755
TU	-5756
Te	-5757
Tw	-5758
Ty	-5759
UD	-5760
UI	-5761
UR	-5762
Us	-5763
VA	-5764
VE	-5765
VI	-5766
WI	-5767
WK	-5768
WL	-5769
WO	-5770
WS	-5771
Wa	-5772
Wi	-5773
YL	-5774
YT	-5775
Yo	-5776
[0	-5777
[3	-5778
])	-5779
aB	-5780
aD	-5781
aH	-5782
aI	-5783
aL	-5784
aM	-5785
aV	-5786
ac	-5787
ae	-5788
af	-5789
ai	-5790
ax	-5791
bS	-5792
ba	-5793
bi	-5794
bj	-5795
bl	-5796
br	-5797
bs	-5798
bu	-5799
0.	-5800
17	-5801
1]	-5802
50	-5803
62	-5804
69	-5805
6:	-5806
CB	-5807
DA	-5808
EA	-5809
EF	-5810
If	-5811
LT	-5812
OG	-5813
Ob	-5814
PU	-5815
Pl	-5816
RK	-5817
So	-5818
TW	-5819
Va	-5820
Vi	-5821
bC	-5822
cF	-5823
cT	-5824
ca	-5825
cq	-5826
cr	-5827
dB	-5828
dC	-5829
dE	-5830
dG	-5831
dL	-5832
dR	-5833
dS	-5834
dT	-5835
dU	-5836
da	-5837
dc	-5838
dd	-5839
di	-5840
dl	-5841
dr	-5842
dt	-5843
dw	-5844
dy	-5845
eA	-5846
eC	-5847
eH	-5848
eI	-5849
eK	-5850
eL	-5851
eO	-5852
eQ	-5853
eR	-5854
eS	-5855
ea	-5856
eb	-5857
eg	-5858
eh	-5859
el	-5860
eo	-5861
eq	-5862
eu	-5863
ev	-5864
fa	-5865
fd	-5866
fg	-5867
fl	-5868
fn	-5869
fr	-5870
fs	-5871
fu	-5872
fy	-5873
gC	-5874
gL	-5875
gS	-5876
gT	-5877
ga	-5878
gc	-5879
ge	-5880
gg	-5881
gi	-5882
gm	-5883
go	-5884
gs	-5885
gt	-5886
gu	-5887
gv	-5888
hC	-5889
hK	-5890
hM	-5891
hT	-5892
hU	-5893
hV	-5894
hi	-5895
hm	-5896
hn	-5897
ho	-5898
hr	-5899
(.	-5900
(3	-5901
26	-5902
52	-5903
68	-5904
CC	-5905
DU	-5906
EY	-5907
GL	-5908
KL	-5909
LS	-5910
Lo	-5911
MO	-5912
Na	-5913
PL	-5914
PP	-5915
RT	-5916
SR	-5917
Sy	-5918
TC	-5919
TH	-5920
TK	-5921
TO	-5922
cI	-5923
ci	-5924
fc	-5925
gH	-5926
hH	-5927
hP	-5928
iB	-5929
ia	-5930
ib	-5931
ie	-5932
ik	-5933
im	-5934
ix	-5935
ja	-5936
je	-5937
ju	-5938
ks	-5939
lA	-5940
lC	-5941
lF	-5942
lR	-5943
lS	-5944
lg	-5945
lu	-5946
mF	-5947
mP	-5948
mR	-5949
mS	-5950
md	-5951
mi	-5952
mk	-5953
mm	-5954
mn	-5955
nE	-5956
nF	-5957
nN	-5958
nS	-5959
nU	-5960
nV	-5961
na	-5962
nc	-5963
ng	-5964
ni	-5965
nj	-5966
nk	-5967
nl	-5968
nn	-5969
np	-5970
ns	-5971
nu	-5972
ny	-5973
oC	-5974
oH	-5975
oI	-5976
oL	-5977
oM	-5978
oS	-5979
oa	-5980
ob	-5981
oc	-5982
oe	-5983
ov	-5984
oy	-5985
pC	-5986
pD	-5987
pH	-5988
pS	-5989
pe	-5990
pl	-5991
po	-5992
pu	-5993
rA	-5994
rB	-5995
rC	-5996
rE	-5997
rF	-5998
rI	-5999
"1	-6000
-2	-6001
2"	-6002
5=	-6003
6]	-6004
=5	-6005
AG	-6006
Ap	-6007
Au	-6008
BL	-6009
BY	-6010
CA	-6011
CE	-6012
Ci	-6013
DD	-6014
El	-6015
Ma	-6016
NA	-6017
NH	-6018
Ne	-6019
OB	-6020
RU	-6021
Sp	-6022
TP	-6023
UC	-6024
aP	-6025
aR	-6026
cR	-6027
cd	-6028
dA	-6029
eU	-6030
ei	-6031
fC	-6032
gl	-6033
hD	-6034
ki	-6035
lT	-6036
mc	-6037
nm	-6038
nv	-6039
oB	-6040
ox	-6041
pL	-6042
rN	-6043
rO	-6044
rS	-6045
rW	-6046
rf	-6047
rg	-6048
rk	-6049
rl	-6050
rm	-6051
rn	-6052
rr	-6053
rs	-6054
ru	-6055
rw	-6056
sB	-6057
sC	-6058
sE	-6059
sF	-6060
sK	-6061
sN	-6062
sO	-6063
sP	-6064
sS	-6065
sT	-6066
sf	-6067
sm	-6068
sq	-6069
sr	-6070
sw	-6071
sy	-6072
tA	-6073
tC	-6074
tD	-6075
tF	-6076
tH	-6077
tI	-6078
tK	-6079
tL	-6080
tN	-6081
tO	-6082
tP	-6083
tQ	-6084
tR	-6085
tS	-6086
tT	-6087
tV	-6088
tW	-6089
ta	-6090
tb	-6091
td	-6092
tl	-6093
tn	-6094
tp	-6095
tu	-6096
tw	-6097
tx	-6098
uc	-6099
"2	-6100
0}	-6101
14	-6102
21	-6103
4!	-6104
72	-6105
Aq	-6106
BS	-6107
BU	-6108
DM	-6109
DN	-6110
GH	-6111
IM	-6112
IS	-6113
ME	-6114
Me	-6115
NL	-6116
NP	-6117
Ou	-6118
PI	-6119
PW	-6120
RA	-6121
TY	-6122
dv	-6123
eB	-6124
gf	-6125
lr	-6126
nW	-6127
nf	-6128
oF	-6129
oK	-6130
pF	-6131
sc	-6132
tB	-6133
tM	-6134
ud	-6135
ui	-6136
uo	-6137
vR	-6138
vl	-6139
vo	-6140
wD	-6141
wI	-6142
wa	-6143
wl	-6144
wm	-6145
wr	-6146
xO	-6147
xc	-6148
xe	-6149
xi	-6150
xp	-6151
yA	-6152
yE	-6153
yG	-6154
yH	-6155
yI	-6156
yK	-6157
yN	-6158
yR	-6159
yS	-6160
yW	-6161
yi	-6162
yl	-6163
yo	-6164
yt	-6165
yw	-6166
ze	-6167
zi	-6168
{0	-6169
▁K	-6170
▁[	-6171
▁q	-6172
▁z	-6173
("1	-6174
(12	-6175
(25	-6176
)+1	-6177
);}	-6178
.0.	-6179
0",	-6180
01;	-6181
0};	-6182
1);	-6183
10*	-6184
10;	-6185
13_	-6186
168	-6187
325	-6188
329	-6189
35_	-6190
3\\	-6191
40;	-6192
40_	-6193
42_	-6194
45_	-6195
48_	-6196
544	-6197
56"	-6198
6";	-6199
&)	-6200
1"	-6201
3)	-6202
35	-6203
4)	-6204
5!	-6205
7.	-6206
BO	-6207
Dr	-6208
Ge	-6209
HR	-6210
II	-6211
Mu	-6212
SK	-6213
SN	-6214
TM	-6215
WC	-6216
YS	-6217
[(	-6218
aC	-6219
aS	-6220
dP	-6221
eD	-6222
eF	-6223
eN	-6224
eT	-6225
mB	-6226
mb	-6227
nC	-6228
rM	-6229
rT	-6230
rp	-6231
tE	-6232
xa	-6233
yL	-6234
yO	-6235
321	-6236
4\\	-6237
5==	-6238
6);	-6239
6-1	-6240
617	-6241
62_	-6242
63_	-6243
67_	-6244
68_	-6245
80_	-6246
82_	-6247
>(5	-6248
ASt	-6249
All	-6250
BSt	-6251
Cau	-6252
Clo	-6253
Coo	-6254
DEN	-6255
Did	-6256
ETW	-6257
FOR	-6258
GEN	-6259
GSE	-6260
Get	-6261
Goo	-6262
HRe	-6263
Han	-6264
Har	-6265
INP	-6266
INS	-6267
Inf	-6268
LEN	-6269
LOB	-6270
Log	-6271
MMA	-6272
MPO	-6273
NAL	-6274
NEC	-6275
NLI	-6276
NOT	-6277
OIN	-6278
OLA	-6279
OST	-6280
PRN	-6281
PRO	-6282
Pad	-6283
RAY	-6284
REN	-6285
RES	-6286
ROT	-6287
RST	-6288
Ran	-6289
SCI	-6290
SUB	-6291
Sam	-6292
Sto	-6293
TAL	-6294
Thi	-6295
Unt	-6296
Val	-6297
Vio	-6298
WAR	-6299
"7	-6300
"\	-6301
(;	-6302
*>	-6303
+"	-6304
0:	-6305
51	-6306
79	-6307
Ba	-6308
EG	-6309
FO	-6310
GS	-6311
KC	-6312
La	-6313
NN	-6314
PA	-6315
RM	-6316
WH	-6317
Wr	-6318
\.	-6319
aA	-6320
aG	-6321
cP	-6322
eE	-6323
eW	-6324
ft	-6325
fw	-6326
hl	-6327
hu	-6328
kt	-6329
mW	-6330
mu	-6331
oR	-6332
sI	-6333
sL	-6334
sd	-6335
sk	-6336
ua	-6337
xC	-6338
xW	-6339
yB	-6340
yU	-6341
za	-6342
3",	-6343
5!=	-6344
66_	-6345
AIN	-6346
Dat	-6347
KCS	-6348
Res	-6349
WCh	-6350
WID	-6351
Wit	-6352
Wor	-6353
adB	-6354
adN	-6355
adO	-6356
ads	-6357
ady	-6358
aes	-6359
alA	-6360
alR	-6361
ale	-6362
amB	-6363
ami	-6364
anu	-6365
app	-6366
arI	-6367
ara	-6368
arn	-6369
arp	-6370
atc	-6371
att	-6372
aws	-6373
ayS	-6374
bor	-6375
bre	-6376
cal	-6377
can	-6378
cei	-6379
cer	-6380
cha	-6381
chn	-6382
cis	-6383
cit	-6384
cks	-6385
clo	-6386
cor	-6387
cre	-6388
ctL	-6389
ctu	-6390
cut	-6391
dRe	-6392
dSt	-6393
dat	-6394
deb	-6395
dep	-6396
dig	-6397
din	-6398
dom	-6399
"&	-6400
":	-6401
(7	-6402
.2	-6403
.\	-6404
2]	-6405
3"	-6406
3\	-6407
5]	-6408
76	-6409
92	-6410
="	-6411
>(	-6412
BD	-6413
EX	-6414
HI	-6415
Ig	-6416
Ld	-6417
PH	-6418
Pe	-6419
Ra	-6420
SW	-6421
TS	-6422
UB	-6423
Ve	-6424
bt	-6425
cS	-6426
dD	-6427
dV	-6428
eP	-6429
fB	-6430
hF	-6431
hS	-6432
hW	-6433
nT	-6434
pM	-6435
ps	-6436
sM	-6437
sR	-6438
sg	-6439
tU	-6440
tf	-6441
xA	-6442
4",	-6443
90)	-6444
EAR	-6445
Man	-6446
PAT	-6447
Ste	-6448
Vec	-6449
arB	-6450
eIn	-6451
ean	-6452
ear	-6453
ece	-6454
edE	-6455
eed	-6456
een	-6457
ein	-6458
emP	-6459
emc	-6460
enC	-6461
ena	-6462
erA	-6463
erC	-6464
erG	-6465
erI	-6466
erM	-6467
erN	-6468
erO	-6469
erW	-6470
era	-6471
erc	-6472
eri	-6473
erv	-6474
esC	-6475
esT	-6476
ese	-6477
etA	-6478
etE	-6479
etI	-6480
etM	-6481
etQ	-6482
etR	-6483
etV	-6484
ett	-6485
eyS	-6486
eyW	-6487
fBy	-6488
fam	-6489
fle	-6490
flo	-6491
fun	-6492
gin	-6493
giv	-6494
glo	-6495
gon	-6496
has	-6497
hat	-6498
hin	-6499
!*	-6500
(8	-6501
+;	-6502
08	-6503
0\	-6504
4\	-6505
58	-6506
6-	-6507
63	-6508
6;	-6509
9]	-6510
An	-6511
DO	-6512
Es	-6513
HD	-6514
Im	-6515
OW	-6516
RP	-6517
Rp	-6518
[9	-6519
dO	-6520
dW	-6521
dm	-6522
eM	-6523
fp	-6524
gN	-6525
nK	-6526
nw	-6527
oE	-6528
pA	-6529
pN	-6530
rL	-6531
rU	-6532
sU	-6533
tG	-6534
tm	-6535
wS	-6536
wp	-6537
"15	-6538
200	-6539
AAA	-6540
GOO	-6541
ORK	-6542
PIN	-6543
ROR	-6544
Typ	-6545
ail	-6546
amR	-6547
blo	-6548
cem	-6549
cif	-6550
edW	-6551
erf	-6552
etO	-6553
his	-6554
hre	-6555
iat	-6556
icR	-6557
ics	-6558
ien	-6559
ifd	-6560
iff	-6561
ifi	-6562
igg	-6563
ils	-6564
inf	-6565
inh	-6566
inl	-6567
inp	-6568
iou	-6569
isn	-6570
isr	-6571
ite	-6572
jec	-6573
kad	-6574
lat	-6575
lds	-6576
leA	-6577
leD	-6578
leI	-6579
leO	-6580
leW	-6581
lec	-6582
lee	-6583
leg	-6584
ler	-6585
les	-6586
lin	-6587
lon	-6588
los	-6589
med	-6590
men	-6591
min	-6592
mis	-6593
mon	-6594
mor	-6595
mpC	-6596
mpD	-6597
mse	-6598
mut	-6599
,1	-6600
/>	-6601
09	-6602
1/	-6603
1\	-6604
2/	-6605
3/	-6606
30	-6607
82	-6608
93	-6609
AX	-6610
Bo	-6611
Br	-6612
Ho	-6613
Iv	-6614
Ov	-6615
SC	-6616
Wc	-6617
Wo	-6618
dg	-6619
gB	-6620
gO	-6621
kB	-6622
kn	-6623
lP	-6624
nA	-6625
nb	-6626
nh	-6627
pE	-6628
pO	-6629
pW	-6630
pd	-6631
vP	-6632
wg	-6633
ya	-6634
16)	-6635
17_	-6636
Cle	-6637
Par	-6638
adL	-6639
amS	-6640
arc	-6641
atE	-6642
dre	-6643
eak	-6644
eyP	-6645
fas	-6646
inF	-6647
ipt	-6648
isA	-6649
lre	-6650
nam	-6651
nat	-6652
nce	-6653
ncp	-6654
nde	-6655
ned	-6656
nin	-6657
nlo	-6658
nse	-6659
nvi	-6660
oEn	-6661
oRe	-6662
oiz	-6663
onE	-6664
onN	-6665
onS	-6666
onV	-6667
onW	-6668
ona	-6669
onc	-6670
one	-6671
onl	-6672
ont	-6673
orS	-6674
ora	-6675
ord	-6676
ori	-6677
orl	-6678
ors	-6679
otF	-6680
otd	-6681
ote	-6682
pad	-6683
pas	-6684
ped	-6685
pic	-6686
pip	-6687
pre	-6688
pse	-6689
ptA	-6690
ptC	-6691
rag	-6692
rat	-6693
rcp	-6694
reC	-6695
reH	-6696
reR	-6697
reS	-6698
rea	-6699
*(	-6700
06	-6701
07	-6702
3,	-6703
48	-6704
53	-6705
73	-6706
74	-6707
83	-6708
97	-6709
9;	-6710
;'	-6711
IW	-6712
LW	-6713
MM	-6714
OI	-6715
OU	-6716
Ro	-6717
Sk	-6718
TN	-6719
Vo	-6720
XE	-6721
dH	-6722
dM	-6723
kE	-6724
kS	-6725
kT	-6726
ku	-6727
lL	-6728
lc	-6729
lh	-6730
lp	-6731
rG	-6732
rP	-6733
yC	-6734
yP	-6735
zF	-6736
▁8	-6737
10+	-6738
98_	-6739
Fre	-6740
OGO	-6741
ROV	-6742
adP	-6743
arS	-6744
ceC	-6745
cin	-6746
dle	-6747
ell	-6748
emb	-6749
erd	-6750
han	-6751
hod	-6752
ise	-6753
man	-6754
mpi	-6755
oce	-6756
rar	-6757
req	-6758
rig	-6759
rin	-6760
rle	-6761
rog	-6762
roo	-6763
sar	-6764
sat	-6765
sch	-6766
seD	-6767
seH	-6768
seI	-6769
seK	-6770
seO	-6771
seW	-6772
sea	-6773
sel	-6774
sen	-6775
seq	-6776
sev	-6777
sig	-6778
son	-6779
ssc	-6780
ssi	-6781
stC	-6782
stE	-6783
stN	-6784
stb	-6785
ste	-6786
sto	-6787
sts	-6788
sul	-6789
sup	-6790
tRe	-6791
teA	-6792
teC	-6793
tem	-6794
tic	-6795
tif	-6796
tin	-6797
ton	-6798
tro	-6799
65	-6800
91	-6801
Af	-6802
Du	-6803
dN	-6804
4];	-6805
Cat	-6806
Der	-6807
ERI	-6808
Lin	-6809
Lon	-6810
Mat	-6811
Mic	-6812
Pat	-6813
Rev	-6814
Sin	-6815
ato	-6816
atu	-6817
bat	-6818
eat	-6819
erB	-6820
erT	-6821
gat	-6822
ges	-6823
gle	-6824
hel	-6825
inS	-6826
ina	-6827
inc	-6828
ind	-6829
ini	-6830
ins	-6831
inv	-6832
isI	-6833
itt	-6834
ker	-6835
kin	-6836
ner	-6837
oin	-6838
onf	-6839
pat	-6840
pin	-6841
seC	-6842
tat	-6843
tte	-6844
tur	-6845
uen	-6846
uer	-6847
ult	-6848
uns	-6849
utB	-6850
utO	-6851
utS	-6852
utb	-6853
uti	-6854
uts	-6855
vRe	-6856
van	-6857
vap	-6858
var	-6859
vat	-6860
vax	-6861
vec	-6862
vem	-6863
vin	-6864
wad	-6865
was	-6866
wer	-6867
xec	-6868
xtB	-6869
xtr	-6870
yRe	-6871
ySt	-6872
yin	-6873
ylo	-6874
zat	-6875
zer	-6876
zin	-6877
▁""	-6878
▁(.	-6879
▁13	-6880
▁18	-6881
▁3)	-6882
▁56	-6883
▁AE	-6884
▁Ap	-6885
▁At	-6886
▁BO	-6887
▁CA	-6888
▁CW	-6889
▁Cl	-6890
▁Co	-6891
▁DW	-6892
▁EN	-6893
▁GO	-6894
▁HA	-6895
▁HM	-6896
▁Ho	-6897
▁Il	-6898
▁Iv	-6899
);'	-6900
10]	-6901
2);	-6902
2_2	-6903
5);	-6904
7);	-6905
8);	-6906
Blo	-6907
DLE	-6908
Ker	-6909
POR	-6910
Per	-6911
Pre	-6912
Sen	-6913
TRE	-6914
Ver	-6915
adG	-6916
arA	-6917
arT	-6918
edO	-6919
erE	-6920
erF	-6921
erS	-6922
erl	-6923
erw	-6924
gre	-6925
idP	-6926
nst	-6927
onA	-6928
par	-6929
reD	-6930
reT	-6931
rec	-6932
red	-6933
ref	-6934
reg	-6935
rem	-6936
ren	-6937
reo	-6938
res	-6939
rod	-6940
rre	-6941
sta	-6942
stc	-6943
toH	-6944
tre	-6945
ude	-6946
wre	-6947
ypt	-6948
▁AD	-6949
▁KE	-6950
▁OM	-6951
▁On	-6952
▁Op	-6953
▁PA	-6954
▁Po	-6955
▁SN	-6956
▁SQ	-6957
▁SY	-6958
▁So	-6959
▁Sq	-6960
▁Sy	-6961
▁TC	-6962
▁Ty	-6963
▁WS	-6964
▁ca	-6965
▁ci	-6966
▁cr	-6967
▁db	-6968
▁di	-6969
▁ef	-6970
▁el	-6971
▁er	-6972
▁ev	-6973
▁fe	-6974
▁fw	-6975
▁hK	-6976
▁hP	-6977
▁ha	-6978
▁ig	-6979
▁iv	-6980
▁ja	-6981
▁ke	-6982
▁na	-6983
▁pF	-6984
▁pc	-6985
▁po	-6986
▁pu	-6987
▁ra	-6988
▁ta	-6989
▁tc	-6990
▁te	-6991
▁tm	-6992
▁tw	-6993
▁ty	-6994
▁vi	-6995
▁wi	-6996
▁wm	-6997
▁wp	-6998
▁wr	-6999
Don	-7000
Eli	-7001
Est	-7002
OVE	-7003
Run	-7004
adC	-7005
adD	-7006
adS	-7007
ada	-7008
ade	-7009
adf	-7010
adv	-7011
arF	-7012
bst	-7013
dif	-7014
don	-7015
etW	-7016
ida	-7017
ifn	-7018
ked	-7019
ket	-7020
lis	-7021
nit	-7022
oIn	-7023
onF	-7024
onT	-7025
onU	-7026
onm	-7027
onv	-7028
pon	-7029
ptI	-7030
pti	-7031
rse	-7032
san	-7033
seS	-7034
seU	-7035
see	-7036
stI	-7037
stK	-7038
stP	-7039
sti	-7040
stn	-7041
teg	-7042
tun	-7043
utu	-7044
yad	-7045
yon	-7046
▁CI	-7047
▁Cr	-7048
▁Im	-7049
▁Lo	-7050
▁ad	-7051
&");	-7052
("..	-7053
.0.1	-7054
/"))	-7055
0");	-7056
12);	-7057
250]	-7058
256-	-7059
321:	-7060
5"))	-7061
9640	-7062
BadN	-7063
BadO	-7064
CATE	-7065
CHEC	-7066
CONN	-7067
COPE	-7068
Call	-7069
Cata	-7070
Chil	-7071
Cond	-7072
DEFA	-7073
Dere	-7074
ENTI	-7075
ESSA	-7076
Exec	-7077
GSET	-7078
INAL	-7079
INIT	-7080
IVAT	-7081
Inse	-7082
KeyG	-7083
LIST	-7084
Last	-7085
MITB	-7086
OCAL	-7087
Over	-7088
Prep	-7089
Priv	-7090
RENT	-7091
RITE	-7092
RegC	-7093
Rele	-7094
Requ	-7095
STAT	-7096
Salt	-7097
Sear	-7098
TENT	-7099
129	-7100
304	-7101
34!	-7102
41_	-7103
Ele	-7104
May	-7105
Ple	-7106
URC	-7107
\\\	-7108
ceL	-7109
cee	-7110
cep	-7111
cle	-7112
coo	-7113
ele	-7114
elo	-7115
hor	-7116
leL	-7117
leN	-7118
leR	-7119
lea	-7120
lem	-7121
lob	-7122
nte	-7123
ole	-7124
oor	-7125
orN	-7126
orU	-7127
ork	-7128
orm	-7129
ple	-7130
plo	-7131
por	-7132
rce	-7133
seB	-7134
sem	-7135
sse	-7136
tor	-7137
tse	-7138
uce	-7139
unu	-7140
vle	-7141
xce	-7142
yle	-7143
▁(7	-7144
▁cl	-7145
▁fr	-7146
▁pH	-7147
▁pL	-7148
▁pa	-7149
▁pl	-7150
100]	-7151
IntA	-7152
Inte	-7153
Prog	-7154
Ther	-7155
ToRe	-7156
Virt	-7157
WHER	-7158
Wipe	-7159
[10+	-7160
\");	-7161
acem	-7162
adin	-7163
alig	-7164
alit	-7165
aliz	-7166
amil	-7167
anch	-7168
anot	-7169
arIn	-7170
argv	-7171
arin	-7172
aryN	-7173
aseB	-7174
aseC	-7175
aseO	-7176
ashD	-7177
assN	-7178
assO	-7179
assT	-7180
assn	-7181
assw	-7182
ataA	-7183
ataB	-7184
ataC	-7185
ataG	-7186
ataH	-7187
ataI	-7188
ataL	-7189
ataM	-7190
ataP	-7191
ataR	-7192
ataS	-7193
ataV	-7194
atab	-7195
atal	-7196
ateH	-7197
ateK	-7198
ateM	-7199
102	-7200
73_	-7201
ADA	-7202
Buf	-7203
Gen	-7204
Glo	-7205
ITB	-7206
RIT	-7207
Var	-7208
arL	-7209
arP	-7210
arr	-7211
ars	-7212
aug	-7213
dar	-7214
deC	-7215
deH	-7216
dec	-7217
del	-7218
des	-7219
det	-7220
dir	-7221
eca	-7222
ede	-7223
enK	-7224
enS	-7225
enU	-7226
enc	-7227
ene	-7228
eni	-7229
eno	-7230
ens	-7231
far	-7232
gen	-7233
har	-7234
hen	-7235
lar	-7236
lit	-7237
loo	-7238
nal	-7239
nen	-7240
rot	-7241
tar	-7242
▁("	-7243
▁0-	-7244
▁ar	-7245
▁ba	-7246
▁bi	-7247
▁br	-7248
▁bu	-7249
100*	-7250
argc	-7251
ateU	-7252
ateW	-7253
atel	-7254
aten	-7255
ater	-7256
atin	-7257
atte	-7258
aves	-7259
badP	-7260
badS	-7261
badf	-7262
berF	-7263
berO	-7264
bles	-7265
blic	-7266
cImp	-7267
cata	-7268
ccur	-7269
chin	-7270
cker	-7271
cket	-7272
clar	-7273
conc	-7274
ctet	-7275
date	-7276
dead	-7277
dele	-7278
ders	-7279
does	-7280
dows	-7281
ecau	-7282
ecis	-7283
ecks	-7284
econ	-7285
ecry	-7286
ectO	-7287
ectS	-7288
edRe	-7289
eing	-7290
elow	-7291
empt	-7292
enat	-7293
ende	-7294
endl	-7295
enig	-7296
enin	-7297
eniz	-7298
enti	-7299
09_	-7300
12)	-7301
APM	-7302
FIL	-7303
Ign	-7304
che	-7305
ckS	-7306
icT	-7307
pcd	-7308
ptD	-7309
ptP	-7310
ptR	-7311
ptS	-7312
pto	-7313
pts	-7314
unt	-7315
xam	-7316
▁Wi	-7317
▁ld	-7318
▁nu	-7319
Sing	-7320
ames	-7321
aryW	-7322
aver	-7323
aylo	-7324
eans	-7325
erIn	-7326
erat	-7327
eren	-7328
eric	-7329
erif	-7330
eriv	-7331
erly	-7332
erre	-7333
erse	-7334
erti	-7335
estK	-7336
estP	-7337
estc	-7338
ests	-7339
etIn	-7340
etSt	-7341
eten	-7342
exam	-7343
eyon	-7344
full	-7345
getO	-7346
getU	-7347
getV	-7348
geth	-7349
gett	-7350
ging	-7351
hDes	-7352
hPro	-7353
havi	-7354
heck	-7355
hile	-7356
iall	-7357
icit	-7358
icol	-7359
iend	-7360
ifde	-7361
igur	-7362
ileN	-7363
ileW	-7364
ilen	-7365
ilit	-7366
inar	-7367
inat	-7368
inde	-7369
iner	-7370
ingB	-7371
ingH	-7372
ingL	-7373
ingS	-7374
ingT	-7375
inis	-7376
inkB	-7377
inkE	-7378
inld	-7379
inse	-7380
inst	-7381
intA	-7382
intB	-7383
intD	-7384
intF	-7385
intG	-7386
intH	-7387
intI	-7388
intL	-7389
intM	-7390
intN	-7391
intO	-7392
intP	-7393
intS	-7394
intT	-7395
intU	-7396
intV	-7397
intW	-7398
inte	-7399
+1]	-7400
2];	-7401
ADM	-7402
CES	-7403
Cal	-7404
Fal	-7405
MAT	-7406
Put	-7407
Roo	-7408
Sal	-7409
Too	-7410
UIN	-7411
alF	-7412
alL	-7413
alT	-7414
alg	-7415
alh	-7416
ali	-7417
alu	-7418
alw	-7419
aly	-7420
eal	-7421
edC	-7422
edL	-7423
edP	-7424
edR	-7425
edT	-7426
edU	-7427
etD	-7428
fal	-7429
ged	-7430
goo	-7431
hed	-7432
mal	-7433
oop	-7434
pal	-7435
ptE	-7436
ptF	-7437
ptH	-7438
ptN	-7439
ptU	-7440
pte	-7441
sal	-7442
tal	-7443
tok	-7444
ved	-7445
zed	-7446
▁fC	-7447
▁gr	-7448
aded	-7449
allo	-7450
alre	-7451
asse	-7452
ateF	-7453
emor	-7454
ened	-7455
ered	-7456
hWin	-7457
ileA	-7458
inal	-7459
inks	-7460
intf	-7461
intl	-7462
into	-7463
ints	-7464
ionA	-7465
ionF	-7466
ionS	-7467
ionW	-7468
isIn	-7469
istN	-7470
iter	-7471
iver	-7472
ixed	-7473
izat	-7474
kens	-7475
king	-7476
lead	-7477
leep	-7478
less	-7479
lien	-7480
link	-7481
llow	-7482
loca	-7483
lwap	-7484
ming	-7485
miss	-7486
mpil	-7487
mple	-7488
mpro	-7489
mpts	-7490
nate	-7491
nect	-7492
nion	-7493
odeH	-7494
oing	-7495
onal	-7496
onat	-7497
onex	-7498
onst	-7499
()"	-7500
0];	-7501
2_3	-7502
500	-7503
Aut	-7504
But	-7505
Has	-7506
Pas	-7507
Pip	-7508
RET	-7509
ToS	-7510
amF	-7511
amW	-7512
ams	-7513
ana	-7514
anc	-7515
ann	-7516
ano	-7517
any	-7518
asd	-7519
asi	-7520
asp	-7521
asy	-7522
aut	-7523
chS	-7524
cka	-7525
cli	-7526
ctF	-7527
dan	-7528
eap	-7529
eas	-7530
etC	-7531
eyG	-7532
fut	-7533
gur	-7534
hil	-7535
hut	-7536
ian	-7537
icF	-7538
lan	-7539
las	-7540
lly	-7541
ram	-7542
sam	-7543
uta	-7544
utc	-7545
utd	-7546
uto	-7547
utp	-7548
utw	-7549
wan	-7550
▁(-	-7551
▁(1	-7552
▁(6	-7553
▁(8	-7554
▁Aq	-7555
▁CH	-7556
▁FL	-7557
▁fl	-7558
192.	-7559
amed	-7560
anal	-7561
cont	-7562
hion	-7563
ific	-7564
ionE	-7565
ionN	-7566
ionT	-7567
ionV	-7568
leak	-7569
oodA	-7570
oodB	-7571
oodG	-7572
oodS	-7573
oodf	-7574
oods	-7575
oole	-7576
orar	-7577
oreH	-7578
orin	-7579
orre	-7580
orts	-7581
otyp	-7582
oxed	-7583
pect	-7584
perC	-7585
pile	-7586
ping	-7587
ppro	-7588
pted	-7589
putS	-7590
putw	-7591
qual	-7592
quot	-7593
race	-7594
reTo	-7595
real	-7596
reas	-7597
rece	-7598
rede	-7599
19_	-7600
ALS	-7601
Dan	-7602
HIN	-7603
PAY	-7604
Rem	-7605
Sel	-7606
Vir	-7607
Wch	-7608
ani	-7609
ckT	-7610
etB	-7611
etP	-7612
etU	-7613
etu	-7614
etw	-7615
hec	-7616
met	-7617
nch	-7618
rch	-7619
tch	-7620
unb	-7621
wch	-7622
▁5.	-7623
▁CL	-7624
▁CR	-7625
▁Ci	-7626
▁fc	-7627
▁fg	-7628
▁fo	-7629
▁fp	-7630
▁fs	-7631
▁fu	-7632
▁sa	-7633
▁sk	-7634
▁sm	-7635
▁sp	-7636
▁sr	-7637
▁ss	-7638
▁sy	-7639
▁wS	-7640
▁wa	-7641
▁wc	-7642
▁wo	-7643
EENT	-7644
Prop	-7645
alid	-7646
amet	-7647
aren	-7648
aseS	-7649
chan	-7650
ched	-7651
enan	-7652
etin	-7653
gist	-7654
iate	-7655
izeo	-7656
prep	-7657
reed	-7658
rein	-7659
rele	-7660
remo	-7661
reop	-7662
repl	-7663
rese	-7664
rest	-7665
resu	-7666
rint	-7667
ript	-7668
roce	-7669
romP	-7670
rorU	-7671
rors	-7672
roun	-7673
rowa	-7674
rows	-7675
rpcr	-7676
rrel	-7677
rror	-7678
scpy	-7679
sear	-7680
seed	-7681
sele	-7682
serN	-7683
serW	-7684
sern	-7685
sion	-7686
sock	-7687
sser	-7688
stIn	-7689
star	-7690
stat	-7691
sted	-7692
stem	-7693
sten	-7694
stif	-7695
stin	-7696
stor	-7697
stre	-7698
stro	-7699
07_	-7700
10)	-7701
ATI	-7702
Fro	-7703
Met	-7704
Rel	-7705
Sta	-7706
Str	-7707
UTS	-7708
bSt	-7709
cSt	-7710
cro	-7711
eSt	-7712
ely	-7713
etF	-7714
etS	-7715
eyE	-7716
het	-7717
hro	-7718
itA	-7719
itF	-7720
itW	-7721
ita	-7722
itl	-7723
oSt	-7724
pEx	-7725
pro	-7726
rok	-7727
rop	-7728
rov	-7729
rro	-7730
sSt	-7731
sit	-7732
tet	-7733
wIn	-7734
wSt	-7735
wit	-7736
xit	-7737
▁ON	-7738
▁Ov	-7739
▁SO	-7740
▁Sk	-7741
▁ea	-7742
▁em	-7743
▁eq	-7744
▁et	-7745
▁mu	-7746
Conn	-7747
KeyC	-7748
Leve	-7749
Stat	-7750
Stre	-7751
adSt	-7752
ctor	-7753
gest	-7754
inSt	-7755
isSu	-7756
ital	-7757
itit	-7758
itse	-7759
mine	-7760
mpor	-7761
orSt	-7762
orit	-7763
reSt	-7764
tate	-7765
teSt	-7766
tend	-7767
ther	-7768
tine	-7769
toBy	-7770
topW	-7771
trun	-7772
ttpO	-7773
ttpS	-7774
turn	-7775
uage	-7776
ular	-7777
ullP	-7778
ulti	-7779
unde	-7780
unds	-7781
unin	-7782
unlo	-7783
unti	-7784
urce	-7785
urit	-7786
urns	-7787
urre	-7788
utSt	-7789
utch	-7790
uten	-7791
uter	-7792
vant	-7793
vect	-7794
vent	-7795
verr	-7796
ving	-7797
will	-7798
wing	-7799
(".	-7800
.10	-7801
16_	-7802
Bec	-7803
FAL	-7804
Fun	-7805
Mis	-7806
Vis	-7807
bec	-7808
eci	-7809
ecr	-7810
ecu	-7811
fec	-7812
isF	-7813
isS	-7814
ism	-7815
isu	-7816
llP	-7817
nec	-7818
sis	-7819
ssA	-7820
tec	-7821
uff	-7822
▁PI	-7823
IBUT	-7824
Pass	-7825
Unsu	-7826
assi	-7827
assu	-7828
atis	-7829
cate	-7830
chSu	-7831
chec	-7832
defa	-7833
ecif	-7834
ecre	-7835
efer	-7836
eyRe	-7837
ferd	-7838
leIn	-7839
mput	-7840
nput	-7841
pass	-7842
putB	-7843
putO	-7844
sour	-7845
spon	-7846
wput	-7847
xtra	-7848
ying	-7849
ysis	-7850
zing	-7851
▁(10	-7852
▁250	-7853
▁5.0	-7854
▁Acc	-7855
▁CAL	-7856
▁CIP	-7857
▁Cal	-7858
▁Cat	-7859
▁Cle	-7860
▁Clo	-7861
▁Coo	-7862
▁Cre	-7863
▁Cry	-7864
▁Def	-7865
▁ERR	-7866
▁Eli	-7867
▁FAL	-7868
▁Fun	-7869
▁HDE	-7870
▁Htt	-7871
▁Mis	-7872
▁Num	-7873
▁PAY	-7874
▁Sen	-7875
▁Too	-7876
▁Two	-7877
▁Typ	-7878
▁Unf	-7879
▁Vir	-7880
▁alw	-7881
▁att	-7882
▁bec	-7883
▁bet	-7884
▁bit	-7885
▁blo	-7886
▁bre	-7887
▁byt	-7888
▁cal	-7889
▁car	-7890
▁cat	-7891
▁cle	-7892
▁coo	-7893
▁cop	-7894
▁cor	-7895
▁cry	-7896
▁doc	-7897
▁ele	-7898
▁enc	-7899
*((	-7900
107	-7901
AIT	-7902
DUL	-7903
ENC	-7904
Enc	-7905
ITG	-7906
ITe	-7907
Inh	-7908
Inj	-7909
Ins	-7910
NIN	-7911
Rea	-7912
Req	-7913
SIT	-7914
ULO	-7915
oty	-7916
rie	-7917
sRe	-7918
tIn	-7919
toC	-7920
urt	-7921
▁".	-7922
▁"1	-7923
▁"2	-7924
▁":	-7925
▁"\	-7926
▁FA	-7927
▁Fi	-7928
▁Fu	-7929
▁ur	-7930
▁vo	-7931
/");	-7932
1020	-7933
4");	-7934
8");	-7935
Inst	-7936
Real	-7937
Reen	-7938
Rest	-7939
SNPR	-7940
aile	-7941
ateP	-7942
ecur	-7943
etur	-7944
icio	-7945
ileO	-7946
ileR	-7947
iles	-7948
nter	-7949
oInt	-7950
ptRe	-7951
seIn	-7952
urat	-7953
vile	-7954
▁Fre	-7955
▁eno	-7956
▁est	-7957
▁fal	-7958
▁fam	-7959
▁fas	-7960
▁fil	-7961
▁flo	-7962
▁fpr	-7963
▁fro	-7964
▁fun	-7965
▁fws	-7966
▁got	-7967
▁gre	-7968
▁ide	-7969
▁inf	-7970
▁inh	-7971
▁ins	-7972
▁inv	-7973
▁lan	-7974
▁lea	-7975
▁nat	-7976
▁nev	-7977
▁pad	-7978
▁pat	-7979
▁por	-7980
▁pra	-7981
▁pri	-7982
▁pse	-7983
▁pub	-7984
▁pur	-7985
▁ran	-7986
▁rea	-7987
▁rec	-7988
▁ref	-7989
▁reg	-7990
▁rel	-7991
▁rem	-7992
▁ren	-7993
▁req	-7994
▁res	-7995
▁rev	-7996
▁roo	-7997
▁sal	-7998
▁sam	-7999
ALI	-8000
ALU	-8001
CAL	-8002
Cry	-8003
FSI	-8004
IOE	-8005
MAL	-8006
TIO	-8007
Try	-8008
WEO	-8009
bil	-8010
cry	-8011
ctl	-8012
esk	-8013
hTh	-8014
hic	-8015
ici	-8016
ico	-8017
idt	-8018
idu	-8019
sid	-8020
typ	-8021
ueO	-8022
veK	-8023
veP	-8024
ves	-8025
vid	-8026
▁Ht	-8027
▁OL	-8028
▁OP	-8029
▁Ob	-8030
▁ae	-8031
▁af	-8032
▁ak	-8033
▁ap	-8034
▁av	-8035
▁aw	-8036
▁ov	-8037
▁ow	-8038
CDEF	-8039
IMIT	-8040
KeyE	-8041
MITE	-8042
MITG	-8043
PROT	-8044
STAN	-8045
Sock	-8046
Vect	-8047
ainF	-8048
asic	-8049
edef	-8050
estC	-8051
icSt	-8052
ical	-8053
icat	-8054
icro	-8055
idat	-8056
ipeN	-8057
ists	-8058
leve	-8059
neIn	-8060
oidP	-8061
oida	-8062
ssar	-8063
stry	-8064
uest	-8065
▁Dri	-8066
▁Par	-8067
▁aut	-8068
▁san	-8069
▁seq	-8070
▁sin	-8071
▁sta	-8072
▁ste	-8073
▁sti	-8074
▁sto	-8075
▁suc	-8076
▁sur	-8077
▁ter	-8078
▁tha	-8079
▁thi	-8080
▁tho	-8081
▁thr	-8082
▁thu	-8083
▁tim	-8084
▁tmp	-8085
▁toB	-8086
▁tok	-8087
▁too	-8088
▁tre	-8089
▁unt	-8090
▁unv	-8091
▁upp	-8092
▁vec	-8093
▁ver	-8094
▁wSt	-8095
▁wan	-8096
▁wch	-8097
▁whi	-8098
▁wit	-8099
1_1	-8100
21_	-8101
Cli	-8102
Mes	-8103
RIN	-8104
ULT	-8105
Wip	-8106
esF	-8107
esc	-8108
esp	-8109
nes	-8110
oes	-8111
oun	-8112
▁PO	-8113
▁oc	-8114
100,	-8115
200)	-8116
Rand	-8117
RegO	-8118
andb	-8119
andl	-8120
andn	-8121
ando	-8122
ckad	-8123
cked	-8124
ectN	-8125
ecti	-8126
ects	-8127
esRe	-8128
fect	-8129
hand	-8130
ites	-8131
pend	-8132
serA	-8133
tect	-8134
uall	-8135
▁FLA	-8136
▁Pre	-8137
▁Pro	-8138
▁aes	-8139
▁alt	-8140
▁chi	-8141
▁cli	-8142
▁nee	-8143
▁nex	-8144
▁wsc	-8145
-8"))	-8146
.0.1"	-8147
0-1);	-8148
10737	-8149
12");	-8150
128);	-8151
20304	-8152
37418	-8153
4!");	-8154
41824	-8155
ACKLO	-8156
ADMOD	-8157
ALWAY	-8158
CCESS	-8159
CHINE	-8160
CaseB	-8161
Conte	-8162
Cooki	-8163
ETWOR	-8164
FileW	-8165
GoodG	-8166
Handl	-8167
INFOA	-8168
ITest	-8169
Imper	-8170
Infor	-8171
Inter	-8172
KEYSE	-8173
MAINT	-8174
MESSA	-8175
MODUL	-8176
Manag	-8177
NECTE	-8178
PipeW	-8179
Progr	-8180
REMOV	-8181
RRENT	-8182
RYPTH	-8183
RYPTO	-8184
Reall	-8185
Reent	-8186
Refer	-8187
SHReg	-8188
SWORD	-8189
SinkB	-8190
State	-8191
Store	-8192
TATIC	-8193
TRUNC	-8194
TestC	-8195
TrueO	-8196
UTENV	-8197
Uncau	-8198
Undef	-8199
580	-8200
Cip	-8201
EEN	-8202
ENA	-8203
ENE	-8204
SAG	-8205
Siz	-8206
TED	-8207
eEn	-8208
imp	-8209
lik	-8210
mpF	-8211
mpl	-8212
pla	-8213
scp	-8214
siz	-8215
teK	-8216
▁PU	-8217
▁Te	-8218
▁hF	-8219
▁hM	-8220
▁ma	-8221
▁mk	-8222
▁mo	-8223
▁ob	-8224
▁op	-8225
DENT	-8226
HAND	-8227
OCKE	-8228
Resu	-8229
ackT	-8230
ased	-8231
ases	-8232
ateC	-8233
ateD	-8234
ateN	-8235
ateR	-8236
ateS	-8237
ateT	-8238
atem	-8239
bort	-8240
cter	-8241
enUS	-8242
exec	-8243
mper	-8244
oize	-8245
oriz	-8246
setS	-8247
vate	-8248
▁Pot	-8249
▁har	-8250
▁her	-8251
▁mal	-8252
▁mat	-8253
▁mes	-8254
▁met	-8255
▁pot	-8256
▁siz	-8257
DUPLE	-8258
Initi	-8259
UserN	-8260
WChar	-8261
WINST	-8262
WLine	-8263
Wchar	-8264
\\");	-8265
\\.\\	-8266
acker	-8267
adLen	-8268
adLib	-8269
aderB	-8270
aderF	-8271
ading	-8272
ained	-8273
align	-8274
alize	-8275
andar	-8276
anges	-8277
anted	-8278
arses	-8279
asser	-8280
assig	-8281
ataIn	-8282
atalo	-8283
aticF	-8284
aticR	-8285
avaDo	-8286
badSt	-8287
berOf	-8288
cases	-8289
cated	-8290
ccomp	-8291
ceptF	-8292
ceptI	-8293
ceptN	-8294
ceptS	-8295
ceptU	-8296
cessA	-8297
charA	-8298
charF	-8299
,10	-8300
01_	-8301
105	-8302
43_	-8303
EAD	-8304
HKE	-8305
KCU	-8306
NAD	-8307
OAD	-8308
TAR	-8309
TRI	-8310
ULL	-8311
\\.	-8312
cti	-8313
eyA	-8314
eyC	-8315
eyL	-8316
eyN	-8317
hey	-8318
ilt	-8319
pcr	-8320
run	-8321
unT	-8322
uni	-8323
unn	-8324
uot	-8325
▁Tw	-8326
▁Wa	-8327
▁hC	-8328
▁hD	-8329
▁hH	-8330
▁hU	-8331
▁hW	-8332
10);	-8333
RAND	-8334
STEN	-8335
ager	-8336
alls	-8337
perl	-8338
unct	-8339
verS	-8340
verf	-8341
verl	-8342
▁dic	-8343
▁fix	-8344
▁hen	-8345
▁isS	-8346
▁iss	-8347
Rever	-8348
aller	-8349
arent	-8350
charP	-8351
chine	-8352
ckage	-8353
cking	-8354
cooki	-8355
ctets	-8356
ctual	-8357
dLine	-8358
dataA	-8359
dataB	-8360
dataC	-8361
dataG	-8362
dataH	-8363
dataL	-8364
dataM	-8365
dataP	-8366
dataR	-8367
dataS	-8368
dataV	-8369
datab	-8370
defin	-8371
dgood	-8372
dvapi	-8373
eLine	-8374
eader	-8375
ecess	-8376
edLen	-8377
efore	-8378
egood	-8379
emory	-8380
ening	-8381
erate	-8382
erify	-8383
erver	-8384
ested	-8385
estin	-8386
estro	-8387
eturn	-8388
etwor	-8389
eyond	-8390
fered	-8391
feren	-8392
flows	-8393
gLine	-8394
getAb	-8395
getBy	-8396
getDe	-8397
getSt	-8398
geten	-8399
11_	-8400
72_	-8401
Hel	-8402
KLO	-8403
LAG	-8404
LAT	-8405
ODE	-8406
XED	-8407
cla	-8408
pay	-8409
pli	-8410
teO	-8411
til	-8412
wld	-8413
you	-8414
yte	-8415
▁li	-8416
()..	-8417
56";	-8418
ODUL	-8419
Reli	-8420
Sour	-8421
ageD	-8422
arte	-8423
asil	-8424
conn	-8425
hort	-8426
iler	-8427
ipeW	-8428
kerb	-8429
larg	-8430
lian	-8431
live	-8432
lows	-8433
onte	-8434
ourt	-8435
wget	-8436
your	-8437
▁(..	-8438
▁INF	-8439
▁INV	-8440
▁bef	-8441
100-1	-8442
Insec	-8443
USKEY	-8444
allow	-8445
arger	-8446
aticT	-8447
entri	-8448
gfree	-8449
goodf	-8450
goods	-8451
hname	-8452
hostb	-8453
hould	-8454
hread	-8455
icall	-8456
idate	-8457
iding	-8458
iends	-8459
iffer	-8460
igure	-8461
ileIn	-8462
ileRe	-8463
iling	-8464
ility	-8465
inall	-8466
inary	-8467
incip	-8468
inish	-8469
initi	-8470
inkEr	-8471
insec	-8472
inser	-8473
intIn	-8474
intSt	-8475
intUn	-8476
inted	-8477
inten	-8478
inter	-8479
iolat	-8480
ionSt	-8481
ional	-8482
iring	-8483
isAli	-8484
istan	-8485
itFor	-8486
ithin	-8487
iting	-8488
itive	-8489
itted	-8490
ivile	-8491
izing	-8492
jects	-8493
lassN	-8494
lassT	-8495
lassn	-8496
leanu	-8497
leare	-8498
letRe	-8499
08_	-8500
22_	-8501
52_	-8502
ARC	-8503
Lay	-8504
Lea	-8505
OTE	-8506
Pot	-8507
VAR	-8508
ayH	-8509
ayO	-8510
ayo	-8511
ctC	-8512
ctT	-8513
fil	-8514
got	-8515
ilu	-8516
kto	-8517
lay	-8518
oti	-8519
ssW	-8520
ssf	-8521
ugh	-8522
vaD	-8523
▁SR	-8524
▁Se	-8525
▁Sp	-8526
100)	-8527
100-	-8528
1000	-8529
100;	-8530
KeyA	-8531
KeyL	-8532
KeyP	-8533
KeyS	-8534
KeyW	-8535
NING	-8536
OING	-8537
RING	-8538
SKey	-8539
aday	-8540
ains	-8541
ardc	-8542
gain	-8543
ivel	-8544
nser	-8545
oten	-8546
sKey	-8547
sers	-8548
serv	-8549
tKey	-8550
tual	-8551
uctL	-8552
ware	-8553
yKey	-8554
▁5==	-8555
▁Wor	-8556
▁bot	-8557
▁pay	-8558
100);	-8559
KeyRe	-8560
ListP	-8561
OTENT	-8562
STANC	-8563
UserA	-8564
enKey	-8565
leteO	-8566
limit	-8567
loadB	-8568
loadL	-8569
login	-8570
loseD	-8571
loseH	-8572
loseK	-8573
loseU	-8574
loseW	-8575
losed	-8576
loses	-8577
lwapi	-8578
matic	-8579
mebad	-8580
ments	-8581
moves	-8582
mpile	-8583
mplet	-8584
mport	-8585
neInt	-8586
nextT	-8587
ntals	-8588
ntify	-8589
oHash	-8590
oKeyC	-8591
ockad	-8592
ocked	-8593
onate	-8594
ondit	-8595
onger	-8596
onver	-8597
ookup	-8598
orage	-8599
02_	-8600
12_	-8601
2_4	-8602
2_6	-8603
70_	-8604
CID	-8605
ToM	-8606
VID	-8607
YPT	-8608
nsu	-8609
sof	-8610
xtD	-8611
xtT	-8612
▁BY	-8613
▁Er	-8614
▁LD	-8615
▁LI	-8616
34",	-8617
ALID	-8618
Prin	-8619
Writ	-8620
adLi	-8621
dary	-8622
dbad	-8623
ensu	-8624
ercl	-8625
fget	-8626
getA	-8627
getE	-8628
getM	-8629
getP	-8630
getQ	-8631
getR	-8632
getW	-8633
getw	-8634
incl	-8635
stEr	-8636
veme	-8637
xtIn	-8638
xter	-8639
▁Inj	-8640
FileA	-8641
FileN	-8642
FileO	-8643
IDENT	-8644
ables	-8645
getIn	-8646
iable	-8647
izeof	-8648
micol	-8649
oreTo	-8650
orith	-8651
orted	-8652
ortun	-8653
ossib	-8654
ouble	-8655
ourth	-8656
oveme	-8657
pLdap	-8658
pName	-8659
pends	-8660
pened	-8661
perab	-8662
perly	-8663
perti	-8664
perty	-8665
pload	-8666
pting	-8667
ption	-8668
putSt	-8669
putch	-8670
puten	-8671
rantL	-8672
raryA	-8673
raver	-8674
reCon	-8675
readO	-8676
reamB	-8677
reamF	-8678
reamR	-8679
reamS	-8680
reamW	-8681
reams	-8682
riage	-8683
ringB	-8684
ringH	-8685
ringS	-8686
ringT	-8687
riteO	-8688
rites	-8689
roken	-8690
rolle	-8691
rorSt	-8692
rrayH	-8693
ryptA	-8694
ryptC	-8695
ryptD	-8696
ryptE	-8697
ryptH	-8698
ryptP	-8699
!";	-8700
AKE	-8701
CKE	-8702
CUR	-8703
Dig	-8704
Dom	-8705
KEW	-8706
OMA	-8707
SKE	-8708
Sig	-8709
TKE	-8710
WKE	-8711
\";	-8712
hom	-8713
igh	-8714
igu	-8715
omm	-8716
omn	-8717
tim	-8718
upp	-8719
▁AN	-8720
▁DE	-8721
▁Dr	-8722
8.10	-8723
RESS	-8724
Rang	-8725
aces	-8726
adva	-8727
emse	-8728
entL	-8729
entl	-8730
entr	-8731
ents	-8732
hent	-8733
omes	-8734
raph	-8735
ssig	-8736
tiBy	-8737
uper	-8738
▁Dec	-8739
▁Der	-8740
▁FIL	-8741
▁HKE	-8742
▁Som	-8743
▁mig	-8744
▁som	-8745
asily	-8746
enter	-8747
erent	-8748
inclu	-8749
ititi	-8750
lassO	-8751
licSt	-8752
licit	-8753
never	-8754
omput	-8755
rypto	-8756
sLine	-8757
seInt	-8758
secur	-8759
servi	-8760
setRe	-8761
setSe	-8762
sever	-8763
sions	-8764
stand	-8765
state	-8766
stder	-8767
stent	-8768
stify	-8769
sting	-8770
suall	-8771
sultS	-8772
tLine	-8773
tains	-8774
teKey	-8775
tiate	-8776
toLow	-8777
topEx	-8778
ttpOn	-8779
uctCh	-8780
uctor	-8781
unate	-8782
unist	-8783
unuse	-8784
uplic	-8785
urned	-8786
using	-8787
uthor	-8788
uting	-8789
ution	-8790
utput	-8791
veKey	-8792
verre	-8793
versi	-8794
viceC	-8795
vletB	-8796
wgood	-8797
wordA	-8798
wordB	-8799
(39	-8800
2.1	-8801
79_	-8802
NST	-8803
SOC	-8804
STE	-8805
STN	-8806
dva	-8807
emR	-8808
emm	-8809
gem	-8810
irs	-8811
iva	-8812
lti	-8813
nti	-8814
own	-8815
pop	-8816
tiB	-8817
▁DN	-8818
▁HC	-8819
▁HD	-8820
▁HT	-8821
▁HU	-8822
▁HW	-8823
▁ju	-8824
▁kn	-8825
ADAT	-8826
DAPM	-8827
Reth	-8828
URCE	-8829
Will	-8830
ameA	-8831
anti	-8832
ashM	-8833
ashV	-8834
avaD	-8835
avax	-8836
cure	-8837
emcp	-8838
itho	-8839
pret	-8840
rcpy	-8841
ritt	-8842
strc	-8843
tial	-8844
vale	-8845
▁Har	-8846
▁Has	-8847
▁deb	-8848
▁dom	-8849
▁lay	-8850
▁lon	-8851
▁mak	-8852
▁sel	-8853
▁sem	-8854
▁tak	-8855
UPINF	-8856
ashed	-8857
ather	-8858
ecret	-8859
indow	-8860
reden	-8861
tials	-8862
valen	-8863
wordC	-8864
wordG	-8865
wordH	-8866
wordL	-8867
wordM	-8868
wordP	-8869
wordS	-8870
wordV	-8871
words	-8872
xtInt	-8873
xtend	-8874
ySink	-8875
ypipe	-8876
▁1337	-8877
▁Conn	-8878
▁Dere	-8879
▁HAND	-8880
▁INAD	-8881
▁INCL	-8882
▁Incl	-8883
▁Init	-8884
▁Inse	-8885
▁Inst	-8886
▁Inte	-8887
▁LIST	-8888
▁Link	-8889
▁Meth	-8890
▁Perm	-8891
▁Poss	-8892
▁Prep	-8893
▁RegC	-8894
▁Rest	-8895
▁SEAR	-8896
▁SECR	-8897
▁SHRE	-8898
▁SNPR	-8899
34_	-8900
58_	-8901
HKL	-8902
NOR	-8903
OCE	-8904
ORD	-8905
Pub	-8906
ROC	-8907
div	-8908
fws	-8909
iph	-8910
nne	-8911
ows	-8912
ppl	-8913
rip	-8914
riv	-8915
sws	-8916
wsa	-8917
wsc	-8918
▁5=	-8919
▁Ac	-8920
▁Ar	-8921
▁dB	-8922
Insp	-8923
Resp	-8924
SYST	-8925
Sign	-8926
Thir	-8927
anne	-8928
aryA	-8929
ceiv	-8930
ignm	-8931
ipal	-8932
oFin	-8933
ppli	-8934
ropp	-8935
sign	-8936
ubst	-8937
wsSt	-8938
▁5!=	-8939
▁App	-8940
▁Cip	-8941
▁SOC	-8942
▁cip	-8943
▁dan	-8944
▁onl	-8945
▁pip	-8946
34");	-8947
Logon	-8948
Point	-8949
alRet	-8950
cessW	-8951
cessf	-8952
check	-8953
ecker	-8954
enign	-8955
oints	-8956
point	-8957
pplic	-8958
sUser	-8959
ssign	-8960
ument	-8961
verri	-8962
▁SYST	-8963
▁Spec	-8964
▁Squi	-8965
▁Tech	-8966
▁Thre	-8967
▁Writ	-8968
▁anal	-8969
▁anot	-8970
▁anyt	-8971
▁badC	-8972
▁badD	-8973
▁badG	-8974
▁badP	-8975
▁badS	-8976
▁bads	-8977
▁befo	-8978
▁belo	-8979
▁calc	-8980
▁cann	-8981
▁cata	-8982
▁chan	-8983
▁chec	-8984
▁chil	-8985
▁conc	-8986
▁cond	-8987
▁conn	-8988
▁cons	-8989
▁cont	-8990
▁coun	-8991
▁dele	-8992
▁desc	-8993
▁desk	-8994
▁ensu	-8995
▁envi	-8996
▁equi	-8997
▁ever	-8998
▁fget	-8999
0';	-9000
1_0	-9001
31;	-9002
327	-9003
328	-9004
32;	-9005
32\	-9006
44_	-9007
95_	-9008
CDE	-9009
DEC	-9010
DEM	-9011
DWR	-9012
Dri	-9013
ERE	-9014
ERN	-9015
UDE	-9016
YSE	-9017
avi	-9018
cqu	-9019
ltS	-9020
lts	-9021
uag	-9022
vir	-9023
wsy	-9024
yUn	-9025
▁EO	-9026
▁ER	-9027
▁NE	-9028
▁UR	-9029
▁US	-9030
▁UT	-9031
Modu	-9032
VALU	-9033
envi	-9034
ervi	-9035
letB	-9036
libr	-9037
ltse	-9038
quen	-9039
quer	-9040
requ	-9041
utws	-9042
▁'\0	-9043
▁Aqu	-9044
▁Squ	-9045
▁UIN	-9046
▁sws	-9047
32_10	-9048
KEWOR	-9049
[100-	-9050
emPro	-9051
essag	-9052
jectO	-9053
mpers	-9054
paces	-9055
raryW	-9056
yHash	-9057
▁atte	-9058
▁fput	-9059
▁func	-9060
▁getP	-9061
▁geth	-9062
▁hDes	-9063
▁hMod	-9064
▁hand	-9065
▁hard	-9066
▁howe	-9067
▁incl	-9068
▁inco	-9069
▁inde	-9070
▁inse	-9071
▁inst	-9072
▁intA	-9073
▁intB	-9074
▁intF	-9075
▁intG	-9076
▁intI	-9077
▁intN	-9078
▁intO	-9079
▁intP	-9080
▁intS	-9081
▁intU	-9082
▁intV	-9083
▁inte	-9084
▁isIn	-9085
▁issu	-9086
▁keyN	-9087
▁lang	-9088
▁litt	-9089
▁look	-9090
▁memb	-9091
▁mode	-9092
▁nece	-9093
▁newD	-9094
▁newl	-9095
▁noth	-9096
▁noti	-9097
▁outb	-9098
▁outs	-9099
))-	-9100
)).	-9101
-25	-9102
1];	-9103
253	-9104
390	-9105
5];	-9106
61:	-9107
61;	-9108
6];	-9109
761	-9110
825	-9111
ATT	-9112
Byt	-9113
CAT	-9114
EAT	-9115
TAT	-9116
Unu	-9117
VAT	-9118
_25	-9119
agm	-9120
iag	-9121
oBy	-9122
sBy	-9123
sag	-9124
snw	-9125
▁25	-9126
(2,2	-9127
10];	-9128
256]	-9129
ATIO	-9130
OCES	-9131
Perm	-9132
Unic	-9133
agem	-9134
ckag	-9135
give	-9136
istP	-9137
iveP	-9138
lare	-9139
ntif	-9140
orag	-9141
pare	-9142
rive	-9143
rueO	-9144
term	-9145
xist	-9146
xtBy	-9147
yImp	-9148
▁(25	-9149
▁Rem	-9150
▁cou	-9151
256-1	-9152
41825	-9153
areSt	-9154
clare	-9155
ctive	-9156
dress	-9157
emset	-9158
ermis	-9159
isten	-9160
nlock	-9161
rorUn	-9162
▁Rele	-9163
▁Resu	-9164
▁perm	-9165
▁poss	-9166
▁prag	-9167
▁prin	-9168
▁priv	-9169
▁pseu	-9170
▁quer	-9171
▁reas	-9172
▁rele	-9173
▁reli	-9174
▁requ	-9175
▁resu	-9176
▁reth	-9177
▁retr	-9178
▁runT	-9179
▁runn	-9180
▁sand	-9181
▁scal	-9182
▁sear	-9183
▁sour	-9184
▁stan	-9185
▁star	-9186
▁stat	-9187
▁stor	-9188
▁stre	-9189
▁supp	-9190
▁syst	-9191
▁term	-9192
▁thei	-9193
▁ther	-9194
▁thin	-9195
▁thre	-9196
▁thro	-9197
▁tran	-9198
▁valu	-9199
(-1	-9200
-1)	-9201
0-1	-9202
1\\	-9203
2\\	-9204
5_0	-9205
ACC	-9206
CHE	-9207
MAC	-9208
MAN	-9209
dou	-9210
dow	-9211
udo	-9212
▁11	-9213
▁19	-9214
▁MA	-9215
Conf	-9216
DEMA	-9217
Form	-9218
IntC	-9219
MPOS	-9220
Mess	-9221
Wher	-9222
badC	-9223
badG	-9224
ebad	-9225
func	-9226
herT	-9227
herw	-9228
mess	-9229
rayH	-9230
rayO	-9231
rayS	-9232
stdo	-9233
tInt	-9234
tesT	-9235
utdo	-9236
utex	-9237
wbad	-9238
wher	-9239
ytes	-9240
▁"\\	-9241
▁(-1	-9242
▁Cop	-9243
▁XXX	-9244
▁fie	-9245
▁typ	-9246
ADATA	-9247
DEFGH	-9248
HashM	-9249
Inher	-9250
arInt	-9251
doFin	-9252
elete	-9253
sults	-9254
tesRe	-9255
▁mess	-9256
▁stdo	-9257
▁vect	-9258
▁wcsc	-9259
▁wher	-9260
▁whet	-9261
(100-1	-9262
1000);	-9263
1234",	-9264
2.168.	-9265
ARNING	-9266
Behavi	-9267
COMPOS	-9268
CRYPTH	-9269
ClassO	-9270
Conver	-9271
CryptA	-9272
CryptC	-9273
CryptE	-9274
CryptH	-9275
DataIn	-9276
Derive	-9277
Deskto	-9278
ENHANC	-9279
Ensure	-9280
Except	-9281
FileIn	-9282
Finish	-9283
HUNDRE	-9284
Helper	-9285
Inject	-9286
KEWORD	-9287
KeyExA	-9288
KeyExW	-9289
KeyLen	-9290
Linked	-9291
Modify	-9292
MySalt	-9293
NECTED	-9294
Plaint	-9295
Potent	-9296
RYPTKE	-9297
RYPTPR	-9298
SADATA	-9299
03_	-9300
04_	-9301
123	-9302
512	-9303
53_	-9304
54_	-9305
5_1	-9306
83_	-9307
84_	-9308
93_	-9309
BUT	-9310
Htt	-9311
SAC	-9312
dio	-9313
efo	-9314
exA	-9315
exC	-9316
exW	-9317
fop	-9318
gra	-9319
htt	-9320
rap	-9321
toB	-9322
toL	-9323
ttl	-9324
wpr	-9325
▁BU	-9326
Expi	-9327
Http	-9328
UTEN	-9329
ario	-9330
ersp	-9331
hard	-9332
iost	-9333
perB	-9334
perG	-9335
pera	-9336
pert	-9337
resp	-9338
stra	-9339
uctC	-9340
uctu	-9341
▁"12	-9342
▁htt	-9343
▁ord	-9344
▁vio	-9345
39544	-9346
AUser	-9347
BTREE	-9348
REENT	-9349
UserW	-9350
Usern	-9351
brary	-9352
esnte	-9353
limin	-9354
nding	-9355
nsiti	-9356
oding	-9357
perat	-9358
percl	-9359
query	-9360
raryN	-9361
rayHe	-9362
uteQu	-9363
▁1000	-9364
▁Tool	-9365
▁prep	-9366
▁resp	-9367
▁sett	-9368
STNAME	-9369
Secure	-9370
Server	-9371
TENANC	-9372
VOLATI	-9373
[100-1	-9374
ackage	-9375
adData	-9376
adLine	-9377
adSink	-9378
adable	-9379
aderIn	-9380
alhost	-9381
alized	-9382
andles	-9383
andomn	-9384
anging	-9385
arLine	-9386
archSu	-9387
aredSt	-9388
arious	-9389
arning	-9390
artext	-9391
asMore	-9392
aseCon	-9393
ashing	-9394
ashion	-9395
assOne	-9396
assing	-9397
asswor	-9398
atable	-9399
112	-9400
121	-9401
BLE	-9402
CLO	-9403
ILE	-9404
LOO	-9405
LOS	-9406
PLE	-9407
PPR	-9408
PRI	-9409
TPR	-9410
YLO	-9411
ime	-9412
npr	-9413
two	-9414
wos	-9415
▁WH	-9416
ERIC	-9417
LOAD	-9418
LOGO	-9419
PRIN	-9420
PROC	-9421
Seri	-9422
addC	-9423
cvRe	-9424
iage	-9425
ipeA	-9426
ipeC	-9427
leng	-9428
prag	-9429
prin	-9430
rlen	-9431
slen	-9432
uild	-9433
yadd	-9434
▁(12	-9435
▁Bec	-9436
▁CLO	-9437
▁PRN	-9438
▁WID	-9439
▁Win	-9440
▁fir	-9441
▁pop	-9442
Found	-9443
OMAIN	-9444
addre	-9445
mpted	-9446
ounds	-9447
rectl	-9448
round	-9449
usion	-9450
woInt	-9451
▁itse	-9452
▁memm	-9453
▁pred	-9454
▁quot	-9455
▁strc	-9456
▁strn	-9457
▁stru	-9458
▁unen	-9459
▁unsa	-9460
DEMAIN	-9461
aseSer	-9462
atches	-9463
atePro	-9464
ateRet	-9465
ationA	-9466
ationE	-9467
ationN	-9468
ationV	-9469
ationW	-9470
ations	-9471
ausing	-9472
aySink	-9473
bjectO	-9474
bjects	-9475
caling	-9476
casesu	-9477
cation	-9478
ceeded	-9479
cessar	-9480
chable	-9481
ctLine	-9482
ctions	-9483
dataBy	-9484
dataRe	-9485
ecking	-9486
eclare	-9487
ection	-9488
ective	-9489
edOper	-9490
edPipe	-9491
edUser	-9492
emmove	-9493
enerat	-9494
entLen	-9495
entine	-9496
enting	-9497
erCase	-9498
erName	-9499
06_	-9500
0].	-9501
26_	-9502
50]	-9503
62;	-9504
96_	-9505
=5)	-9506
COP	-9507
ExW	-9508
HAN	-9509
IVE	-9510
RAN	-9511
RIV	-9512
fpr	-9513
nly	-9514
wap	-9515
"));	-9516
0]);	-9517
ENAM	-9518
ENAN	-9519
HANC	-9520
PRIV	-9521
Syst	-9522
TRUN	-9523
hich	-9524
itly	-9525
newD	-9526
ntal	-9527
nten	-9528
ropr	-9529
syst	-9530
tons	-9531
ttld	-9532
▁HAN	-9533
▁POP	-9534
LongL	-9535
alsTo	-9536
echan	-9537
ffect	-9538
keniz	-9539
ldbad	-9540
lying	-9541
newIn	-9542
nsure	-9543
ranch	-9544
reads	-9545
sTrue	-9546
stant	-9547
verly	-9548
windo	-9549
wsyst	-9550
▁Syst	-9551
▁empt	-9552
▁keyG	-9553
MODULE	-9554
acking	-9555
alTrue	-9556
alread	-9557
enated	-9558
erived	-9559
eroMem	-9560
errors	-9561
ervice	-9562
ervlet	-9563
esFile	-9564
esLine	-9565
estKey	-9566
esting	-9567
ething	-9568
except	-9569
fBytes	-9570
fprint	-9571
gative	-9572
getDef	-9573
getOut	-9574
getPro	-9575
gorith	-9576
hCrypt	-9577
herent	-9578
iately	-9579
iation	-9580
ically	-9581
ictate	-9582
idated	-9583
igning	-9584
ilding	-9585
inally	-9586
inkedL	-9587
inking	-9588
inting	-9589
istand	-9590
istent	-9591
isting	-9592
itable	-9593
itions	-9594
ivateF	-9595
ivateT	-9596
iveKey	-9597
lation	-9598
ldgood	-9599
05_	-9600
59_	-9601
5_3	-9602
5_4	-9603
5_6	-9604
65_	-9605
75_	-9606
Cop	-9607
SEE	-9608
YPE	-9609
cop	-9610
mod	-9611
odi	-9612
ods	-9613
odu	-9614
ody	-9615
0-1]	-9616
CRYP	-9617
Math	-9618
OGON	-9619
OVID	-9620
REAT	-9621
SASt	-9622
SetC	-9623
Sett	-9624
deCh	-9625
exCh	-9626
odif	-9627
setE	-9628
toCh	-9629
uctF	-9630
uctT	-9631
ureD	-9632
wner	-9633
▁ato	-9634
▁dou	-9635
▁fop	-9636
▁mod	-9637
▁pla	-9638
ListN	-9639
TestP	-9640
UNDRE	-9641
emcpy	-9642
rrayO	-9643
vider	-9644
yaddr	-9645
▁CRYP	-9646
▁Virt	-9647
▁seri	-9648
▁spec	-9649
Contro	-9650
assTwo	-9651
clared	-9652
ctTest	-9653
ensiti	-9654
ertion	-9655
ipherT	-9656
leLine	-9657
leting	-9658
levant	-9659
licate	-9660
linked	-9661
llegal	-9662
loadBy	-9663
loaded	-9664
logged	-9665
losing	-9666
maller	-9667
mation	-9668
megood	-9669
memset	-9670
micros	-9671
mitted	-9672
moveme	-9673
mpFile	-9674
mplete	-9675
mplish	-9676
mption	-9677
ncoded	-9678
ncrypt	-9679
ndefin	-9680
necess	-9681
newbad	-9682
nextTo	-9683
nprint	-9684
ockadd	-9685
ocketF	-9686
odeHex	-9687
ograph	-9688
oiding	-9689
ointed	-9690
oldbad	-9691
omatic	-9692
omment	-9693
onUser	-9694
onated	-9695
onment	-9696
onsole	-9697
ontext	-9698
ookups	-9699
CIP	-9700
ETA	-9701
GET	-9702
IPH	-9703
PIP	-9704
bso	-9705
cau	-9706
csc	-9707
csn	-9708
fau	-9709
kup	-9710
lso	-9711
tup	-9712
ETEN	-9713
Envi	-9714
Noth	-9715
SHAR	-9716
SHRe	-9717
SKEY	-9718
Vari	-9719
WKEY	-9720
arts	-9721
balF	-9722
bero	-9723
bove	-9724
csch	-9725
eroM	-9726
erou	-9727
gero	-9728
onso	-9729
oves	-9730
runc	-9731
vari	-9732
▁PIP	-9733
▁exp	-9734
▁sol	-9735
▁uns	-9736
5==5)	-9737
Clean	-9738
ETACH	-9739
PipeA	-9740
PipeC	-9741
UFFER	-9742
ailed	-9743
arian	-9744
cscpy	-9745
cslen	-9746
defau	-9747
empor	-9748
yName	-9749
▁Abst	-9750
▁exec	-9751
▁isSu	-9752
ArrayH	-9753
ArrayO	-9754
Config	-9755
Expect	-9756
IntsSt	-9757
Revert	-9758
exChar	-9759
lobalF	-9760
oolean	-9761
orName	-9762
ording	-9763
orized	-9764
ortion	-9765
ourceL	-9766
ources	-9767
owever	-9768
pecifi	-9769
pening	-9770
plaint	-9771
pplied	-9772
printl	-9773
proper	-9774
rArray	-9775
rFalse	-9776
ration	-9777
ravers	-9778
readsa	-9779
reamBy	-9780
reamRe	-9781
reateD	-9782
reateM	-9783
reateN	-9784
reateT	-9785
reateU	-9786
reateW	-9787
reated	-9788
rectly	-9789
rector	-9790
reeing	-9791
revent	-9792
riends	-9793
riting	-9794
rivate	-9795
rocess	-9796
ropert	-9797
rosoft	-9798
rowing	-9799
81_	-9800
WAY	-9801
Dang	-9802
HReg	-9803
OnEx	-9804
SWOR	-9805
cret	-9806
dexO	-9807
hMod	-9808
lloc	-9809
ureR	-9810
uteQ	-9811
▁CRL	-9812
▁Mic	-9813
Modif	-9814
ctory	-9815
ecure	-9816
erOne	-9817
erOut	-9818
ilure	-9819
index	-9820
locat	-9821
ructF	-9822
ructL	-9823
ructT	-9824
uture	-9825
▁DWOR	-9826
▁STAR	-9827
▁anyw	-9828
▁dere	-9829
▁wcsn	-9830
OneInt	-9831
PROVID	-9832
Regist	-9833
cument	-9834
ential	-9835
erSpec	-9836
erefer	-9837
intext	-9838
mpting	-9839
ructCh	-9840
ructor	-9841
ryptEn	-9842
ryptRe	-9843
rypted	-9844
ryptog	-9845
sBytes	-9846
sClass	-9847
saData	-9848
serted	-9849
stance	-9850
starts	-9851
stname	-9852
sually	-9853
sultse	-9854
tained	-9855
tation	-9856
though	-9857
tiByte	-9858
toByte	-9859
ttpSer	-9860
uccess	-9861
ucture	-9862
ufferd	-9863
undary	-9864
upload	-9865
urning	-9866
urpose	-9867
utable	-9868
utchar	-9869
uthent	-9870
valent	-9871
vletRe	-9872
wordRe	-9873
writeO	-9874
xceptF	-9875
xceptI	-9876
xceptN	-9877
xceptS	-9878
xceptU	-9879
ystemR	-9880
▁"\\\\	-9881
▁256-1	-9882
▁Clean	-9883
▁Cooki	-9884
▁Estab	-9885
▁FileN	-9886
▁FileO	-9887
▁HashM	-9888
▁INADD	-9889
▁INCLU	-9890
▁INVAL	-9891
▁Inclu	-9892
▁Initi	-9893
▁Inser	-9894
▁LDAPM	-9895
▁OMITB	-9896
▁OMITG	-9897
▁Possi	-9898
▁Reent	-9899
(50	-9900
31_	-9901
51_	-9902
91_	-9903
HRE	-9904
IRE	-9905
NAM	-9906
Pla	-9907
REA	-9908
RED	-9909
REM	-9910
dri	-9911
▁	-9912
e	-9913
t	-9914
a	-9915
i	-9916
n	-9917
r	-9918
o	-9919
s	-9920
d	-9921
l	-9922
c	-9923
p	-9924
(	-9925
)	-9926
f	-9927
u	-9928
h	-9929
;	-9930
*	-9931
_	-9932
I	-9933
g	-9934
/	-9935
L	-9936
w	-9937
O	-9938
m	-9939
.	-9940
"	-9941
E	-9942
S	-9943
C	-9944
b	-9945
T	-9946
A	-9947
{	-9948
}	-9949
v	-9950
=	-9951
y	-9952
N	-9953
,	-9954
R	-9955
B	-9956
F	-9957
D	-9958
k	-9959
0	-9960
x	-9961
W	-9962
1	-9963
2	-9964
P	-9965
G	-9966
#	-9967
U	-9968
M	-9969
:	-9970
H	-9971
[	-9972
]	-9973
K	-9974
5	-9975
3	-9976
-	-9977
'	-9978
!	-9979
z	-9980
V	-9981
\	-9982
6	-9983
j	-9984
<	-9985
q	-9986
>	-9987
+	-9988
&	-9989
4	-9990
X	-9991
8	-9992
9	-9993
Y	-9994
7	-9995
Q	-9996
